{
  "version": "1.0",
  "truncation": null,
  "padding": null,
  "added_tokens": [
    {
      "id": 0,
      "content": "[UNK]",
      "single_word": false,
      "lstrip": false,
      "rstrip": false,
      "normalized": false,
      "special": true
    },
    {
      "id": 1,
      "content": "[CLS]",
      "single_word": false,
      "lstrip": false,
      "rstrip": false,
      "normalized": false,
      "special": true
    },
    {
      "id": 2,
      "content": "[SEP]",
      "single_word": false,
      "lstrip": false,
      "rstrip": false,
      "normalized": false,
      "special": true
    },
    {
      "id": 3,
      "content": "[PAD]",
      "single_word": false,
      "lstrip": false,
      "rstrip": false,
      "normalized": false,
      "special": true
    },
    {
      "id": 4,
      "content": "[MASK]",
      "single_word": false,
      "lstrip": false,
      "rstrip": false,
      "normalized": false,
      "special": true
    }
  ],
  "normalizer": null,
  "pre_tokenizer": {
    "type": "Whitespace"
  },
  "post_processor": null,
  "decoder": null,
  "model": {
    "type": "BPE",
    "dropout": null,
    "unk_token": "[UNK]",
    "continuing_subword_prefix": null,
    "end_of_word_suffix": null,
    "fuse_unk": false,
    "byte_fallback": false,
    "ignore_merges": false,
    "vocab": {
      "[UNK]": 0,
      "[CLS]": 1,
      "[SEP]": 2,
      "[PAD]": 3,
      "[MASK]": 4,
      "!": 5,
      "\"": 6,
      "'": 7,
      "(": 8,
      ")": 9,
      ",": 10,
      "-": 11,
      ".": 12,
      "/": 13,
      "0": 14,
      "1": 15,
      "2": 16,
      "3": 17,
      "5": 18,
      "7": 19,
      "8": 20,
      ":": 21,
      ";": 22,
      "=": 23,
      "?": 24,
      "A": 25,
      "B": 26,
      "C": 27,
      "D": 28,
      "E": 29,
      "F": 30,
      "G": 31,
      "H": 32,
      "I": 33,
      "J": 34,
      "K": 35,
      "L": 36,
      "M": 37,
      "N": 38,
      "O": 39,
      "P": 40,
      "Q": 41,
      "R": 42,
      "S": 43,
      "T": 44,
      "U": 45,
      "V": 46,
      "W": 47,
      "Y": 48,
      "Z": 49,
      "[": 50,
      "]": 51,
      "`": 52,
      "a": 53,
      "b": 54,
      "c": 55,
      "d": 56,
      "e": 57,
      "f": 58,
      "g": 59,
      "h": 60,
      "i": 61,
      "j": 62,
      "k": 63,
      "l": 64,
      "m": 65,
      "n": 66,
      "o": 67,
      "p": 68,
      "q": 69,
      "r": 70,
      "s": 71,
      "t": 72,
      "u": 73,
      "v": 74,
      "w": 75,
      "x": 76,
      "y": 77,
      "z": 78,
      "­": 79,
      "á": 80,
      "é": 81,
      "í": 82,
      "ó": 83,
      "ú": 84,
      "–": 85,
      "‘": 86,
      "’": 87,
      "“": 88,
      "”": 89,
      "ko": 90,
      "ng": 91,
      "ch": 92,
      "et": 93,
      "ne": 94,
      "ki": 95,
      "ny": 96,
      "ak": 97,
      "ta": 98,
      "che": 99,
      "oo": 100,
      "nd": 101,
      "eng": 102,
      "ii": 103,
      "to": 104,
      "am": 105,
      "ee": 106,
      "ek": 107,
      "ei": 108,
      "ik": 109,
      "an": 110,
      "ag": 111,
      "tu": 112,
      "ap": 113,
      "or": 114,
      "ai": 115,
      "gu": 116,
      "ndet": 117,
      "is": 118,
      "at": 119,
      "le": 120,
      "amu": 121,
      "in": 122,
      "ar": 123,
      "en": 124,
      "tai": 125,
      "uu": 126,
      "po": 127,
      "Ki": 128,
      "wo": 129,
      "un": 130,
      "ab": 131,
      "ma": 132,
      "eet": 133,
      "it": 134,
      "ot": 135,
      "tugu": 136,
      "er": 137,
      "si": 138,
      "oor": 139,
      "al": 140,
      "on": 141,
      "kob": 142,
      "amuk": 143,
      "wa": 144,
      "amuktai": 145,
      "Kamuktai": 146,
      "mu": 147,
      "ooto": 148,
      "as": 149,
      "Kamuktaindet": 150,
      "nee": 151,
      "chi": 152,
      "tugul": 153,
      "ago": 154,
      "any": 155,
      "bo": 156,
      "tap": 157,
      "ke": 158,
      "os": 159,
      "iik": 160,
      "ye": 161,
      "ti": 162,
      "mi": 163,
      "eer": 164,
      "ya": 165,
      "gap": 166,
      "nyi": 167,
      "Tor": 168,
      "neendet": 169,
      "Toroor": 170,
      "yek": 171,
      "em": 172,
      "ineendet": 173,
      "yo": 174,
      "ang": 175,
      "ut": 176,
      "yet": 177,
      "go": 178,
      "ji": 179,
      "een": 180,
      "iche": 181,
      "ka": 182,
      "gei": 183,
      "tor": 184,
      "om": 185,
      "el": 186,
      "uk": 187,
      "anyun": 188,
      "ol": 189,
      "ung": 190,
      "Ak": 191,
      "ok": 192,
      "eek": 193,
      "es": 194,
      "ir": 195,
      "kom": 196,
      "icheek": 197,
      "im": 198,
      "etap": 199,
      "age": 200,
      "chii": 201,
      "oi": 202,
      "kole": 203,
      "eny": 204,
      "ra": 205,
      "wek": 206,
      "iit": 207,
      "il": 208,
      "eb": 209,
      "yai": 210,
      "ngo": 211,
      "kor": 212,
      "ur": 213,
      "chin": 214,
      "ole": 215,
      "kog": 216,
      "ib": 217,
      "piik": 218,
      "we": 219,
      "ah": 220,
      "aitor": 221,
      "leen": 222,
      "us": 223,
      "yat": 224,
      "yik": 225,
      "iny": 226,
      "kot": 227,
      "laitor": 228,
      ".”": 229,
      "kw": 230,
      "weer": 231,
      "nyu": 232,
      "ndo": 233,
      "ing": 234,
      "kip": 235,
      "Is": 236,
      "ig": 237,
      "peet": 238,
      "syek": 239,
      "ob": 240,
      "kar": 241,
      "cham": 242,
      "ook": 243,
      "peetuu": 244,
      "wog": 245,
      "ale": 246,
      "leenji": 247,
      "ul": 248,
      "nda": 249,
      "tiny": 250,
      "wak": 251,
      "mo": 252,
      "rael": 253,
      "yi": 254,
      "Israel": 255,
      "enge": 256,
      "kos": 257,
      "weerii": 258,
      "kei": 259,
      "kag": 260,
      "nooto": 261,
      "kong": 262,
      "chooto": 263,
      "iir": 264,
      "ani": 265,
      "ud": 266,
      "kib": 267,
      "kig": 268,
      "oto": 269,
      "nat": 270,
      "tis": 271,
      "lel": 272,
      "Amu": 273,
      "iy": 274,
      "kwo": 275,
      "eetap": 276,
      "ni": 277,
      "anan": 278,
      "mwa": 279,
      "nyo": 280,
      "week": 281,
      "kobooto": 282,
      "emet": 283,
      "isi": 284,
      "Ago": 285,
      "une": 286,
      "kas": 287,
      "ker": 288,
      "kon": 289,
      "keny": 290,
      "ama": 291,
      "chu": 292,
      "ito": 293,
      "kiy": 294,
      "inik": 295,
      "agobo": 296,
      "og": 297,
      "kai": 298,
      "ish": 299,
      "wet": 300,
      "kir": 301,
      "kam": 302,
      "te": 303,
      "tab": 304,
      "kim": 305,
      "oon": 306,
      "tinyei": 307,
      "mugu": 308,
      "Ch": 309,
      "ennyi": 310,
      "kab": 311,
      "wok": 312,
      "ip": 313,
      "iigap": 314,
      "wai": 315,
      "som": 316,
      "guk": 317,
      "anas": 318,
      "atu": 319,
      "Ko": 320,
      "tuguuk": 321,
      "chei": 322,
      "par": 323,
      "tyo": 324,
      "koek": 325,
      "ind": 326,
      "agenge": 327,
      "koleenji": 328,
      "aa": 329,
      "wogik": 330,
      "bar": 331,
      "sir": 332,
      "por": 333,
      "Kip": 334,
      "chang": 335,
      "osyek": 336,
      "',": 337,
      "uut": 338,
      "ine": 339,
      "sab": 340,
      "ug": 341,
      "ub": 342,
      "agoi": 343,
      "utik": 344,
      "nganas": 345,
      "isy": 346,
      "iman": 347,
      "ong": 348,
      "kee": 349,
      "toi": 350,
      "man": 351,
      "wony": 352,
      "nebo": 353,
      "cha": 354,
      "oni": 355,
      "iil": 356,
      "koma": 357,
      "oochin": 358,
      "Ng": 359,
      "iin": 360,
      "oochi": 361,
      "weeriitap": 362,
      "mis": 363,
      "sing": 364,
      "biik": 365,
      "ndi": 366,
      "kony": 367,
      "aeng": 368,
      "Ma": 369,
      "nen": 370,
      "ket": 371,
      "alak": 372,
      "chep": 373,
      "til": 374,
      "ku": 375,
      "indet": 376,
      "la": 377,
      "laitoryat": 378,
      "isto": 379,
      "isyek": 380,
      "Am": 381,
      "mut": 382,
      "lo": 383,
      "onik": 384,
      "yuk": 385,
      "jin": 386,
      "mur": 387,
      "wan": 388,
      "yee": 389,
      "ep": 390,
      "yoo": 391,
      "boi": 392,
      "cho": 393,
      "koo": 394,
      "kingo": 395,
      "get": 396,
      "ory": 397,
      "isyet": 398,
      "kago": 399,
      "nde": 400,
      "be": 401,
      "ennyu": 402,
      "Tos": 403,
      "lago": 404,
      "nywa": 405,
      "pa": 406,
      "kwen": 407,
      "etab": 408,
      "mugulel": 409,
      "kap": 410,
      "ton": 411,
      "aal": 412,
      "ima": 413,
      "kit": 414,
      "'.": 415,
      "oik": 416,
      "Kiptai": 417,
      "inye": 418,
      "ait": 419,
      "teng": 420,
      "kogeny": 421,
      "da": 422,
      "tos": 423,
      "ndany": 424,
      "koba": 425,
      "Jer": 426,
      "koi": 427,
      "kan": 428,
      "tengek": 429,
      "ner": 430,
      "kol": 431,
      "piigap": 432,
      "inwek": 433,
      "Jes": 434,
      "peek": 435,
      "kobiit": 436,
      "taman": 437,
      "lug": 438,
      "komos": 439,
      "kiit": 440,
      "amit": 441,
      "kiga": 442,
      "okweek": 443,
      "olyoo": 444,
      "utap": 445,
      "so": 446,
      "um": 447,
      "woo": 448,
      "kootap": 449,
      "wong": 450,
      "egu": 451,
      "Ab": 452,
      "kwa": 453,
      "eel": 454,
      "egei": 455,
      "tup": 456,
      "ba": 457,
      "udi": 458,
      "na": 459,
      "Da": 460,
      "taitap": 461,
      "aran": 462,
      "kobo": 463,
      "Kiptaiyat": 464,
      "wei": 465,
      "Daudi": 466,
      "keb": 467,
      "mii": 468,
      "neet": 469,
      "oot": 470,
      "yatap": 471,
      "igap": 472,
      "met": 473,
      "iis": 474,
      "yin": 475,
      "ara": 476,
      "tui": 477,
      "Ye": 478,
      "kagoochin": 479,
      "yot": 480,
      "chechang": 481,
      "chiito": 482,
      "Jeso": 483,
      "pi": 484,
      "Kamuktaind": 485,
      "chaang": 486,
      "miising": 487,
      "sh": 488,
      "nam": 489,
      "ge": 490,
      "wol": 491,
      "mag": 492,
      "inyee": 493,
      "Eng": 494,
      "me": 495,
      "utyet": 496,
      "usa": 497,
      "ia": 498,
      "myee": 499,
      "iito": 500,
      "do": 501,
      "sa": 502,
      "komi": 503,
      "kal": 504,
      "Jud": 505,
      "ata": 506,
      "ach": 507,
      "ako": 508,
      "king": 509,
      "eero": 510,
      "tul": 511,
      "poun": 512,
      "Musa": 513,
      "koyai": 514,
      "oru": 515,
      "alaal": 516,
      "isir": 517,
      "kobun": 518,
      "arta": 519,
      "peetuusyek": 520,
      "isye": 521,
      "tog": 522,
      "chini": 523,
      "Judah": 524,
      "guur": 525,
      "kips": 526,
      "eche": 527,
      "bet": 528,
      "noto": 529,
      "alem": 530,
      "git": 531,
      "ser": 532,
      "nyal": 533,
      "chor": 534,
      "ndap": 535,
      "somok": 536,
      "usalem": 537,
      "Jerusalem": 538,
      "ache": 539,
      "ed": 540,
      "pun": 541,
      "ebee": 542,
      "koot": 543,
      "otwog": 544,
      "chok": 545,
      "yae": 546,
      "yei": 547,
      "mwaei": 548,
      "laitoryatap": 549,
      "tok": 550,
      "?”": 551,
      "Ph": 552,
      "oret": 553,
      "net": 554,
      "iet": 555,
      "ukul": 556,
      "poisy": 557,
      "boisi": 558,
      "soman": 559,
      "keer": 560,
      "lak": 561,
      "engwet": 562,
      "ngor": 563,
      "kur": 564,
      "kosiir": 565,
      "bik": 566,
      "eh": 567,
      "uur": 568,
      "uuchi": 569,
      "natet": 570,
      "ile": 571,
      "ui": 572,
      "eech": 573,
      "sei": 574,
      "indo": 575,
      "Misir": 576,
      "uch": 577,
      "moi": 578,
      "toret": 579,
      "olooto": 580,
      "ooch": 581,
      "onooto": 582,
      "kipsengwet": 583,
      "mbar": 584,
      "nateet": 585,
      "ber": 586,
      "aik": 587,
      "ech": 588,
      "oom": 589,
      "meny": 590,
      "iip": 591,
      "taat": 592,
      "eune": 593,
      "ndoi": 594,
      "kel": 595,
      "amitwogik": 596,
      "itu": 597,
      "porory": 598,
      "nganaseet": 599,
      "kirwoo": 600,
      "sukul": 601,
      "saboo": 602,
      "koy": 603,
      "eenji": 604,
      "tuun": 605,
      "emetap": 606,
      "gol": 607,
      "Kingo": 608,
      "ngot": 609,
      "Ar": 610,
      "ngun": 611,
      "asi": 612,
      "koit": 613,
      "kil": 614,
      "wech": 615,
      "kebeb": 616,
      "anee": 617,
      "chebo": 618,
      "peetuut": 619,
      "kes": 620,
      "akobo": 621,
      "ugu": 622,
      "tisap": 623,
      "eiy": 624,
      "yok": 625,
      "eni": 626,
      "tuk": 627,
      "yand": 628,
      "meng": 629,
      "waat": 630,
      "set": 631,
      "iisyek": 632,
      "mising": 633,
      "tiliil": 634,
      "imanda": 635,
      "komwa": 636,
      "wendi": 637,
      "sye": 638,
      "kwan": 639,
      "nik": 640,
      "agot": 641,
      "koon": 642,
      "mugul": 643,
      "toroor": 644,
      "logo": 645,
      "bai": 646,
      "enik": 647,
      "Misiri": 648,
      "wal": 649,
      "maat": 650,
      "kobar": 651,
      "up": 652,
      "unet": 653,
      "koch": 654,
      "ort": 655,
      "pir": 656,
      "ennywa": 657,
      "ooru": 658,
      "th": 659,
      "ulo": 660,
      "ad": 661,
      "ndanyi": 662,
      "nei": 663,
      "kou": 664,
      "koig": 665,
      "siek": 666,
      "tinye": 667,
      "pororyosyek": 668,
      "yan": 669,
      "otik": 670,
      "komugul": 671,
      "iindet": 672,
      "aulo": 673,
      "mache": 674,
      "Ee": 675,
      "eget": 676,
      "keet": 677,
      "oti": 678,
      "poor": 679,
      "kogeer": 680,
      "chop": 681,
      "kis": 682,
      "tar": 683,
      "muguleld": 684,
      "uuto": 685,
      "koigeny": 686,
      "ga": 687,
      "tee": 688,
      "ro": 689,
      "uti": 690,
      "wetap": 691,
      "kebeber": 692,
      "risto": 693,
      "iten": 694,
      "mat": 695,
      "let": 696,
      "ter": 697,
      "ame": 698,
      "sig": 699,
      "lagok": 700,
      "aleek": 701,
      "endi": 702,
      "tain": 703,
      "iib": 704,
      "El": 705,
      "kut": 706,
      "nguno": 707,
      "rob": 708,
      "aga": 709,
      "tik": 710,
      "abu": 711,
      "yaei": 712,
      "icheeget": 713,
      "weet": 714,
      "eeche": 715,
      "yait": 716,
      "Kristo": 717,
      "ano": 718,
      "yeet": 719,
      "ana": 720,
      "iph": 721,
      "amei": 722,
      "choto": 723,
      "wegap": 724,
      "yu": 725,
      "tuguu": 726,
      "parak": 727,
      "nget": 728,
      "pogol": 729,
      "tuguk": 730,
      "oh": 731,
      "tengekto": 732,
      "agine": 733,
      "wat": 734,
      "poi": 735,
      "kat": 736,
      "rir": 737,
      "menyei": 738,
      "wen": 739,
      "As": 740,
      "Kamuktaindeng": 741,
      "amwa": 742,
      "kobooch": 743,
      "goito": 744,
      "Og": 745,
      "nnyi": 746,
      "osh": 747,
      "tonon": 748,
      "nyalil": 749,
      "mes": 750,
      "kararan": 751,
      "isiek": 752,
      "pik": 753,
      "wot": 754,
      "lugeet": 755,
      "niito": 756,
      "tem": 757,
      "ees": 758,
      "korot": 759,
      "kokw": 760,
      "sich": 761,
      "Ne": 762,
      "eliph": 763,
      "se": 764,
      "eegap": 765,
      "konyo": 766,
      "nennyi": 767,
      "ngal": 768,
      "eun": 769,
      "kwanisyek": 770,
      "tun": 771,
      "kenyiisyek": 772,
      "inendet": 773,
      "kibo": 774,
      "oriit": 775,
      "guure": 776,
      "pet": 777,
      "bor": 778,
      "ami": 779,
      "tuiyet": 780,
      "mar": 781,
      "weeriigap": 782,
      "atuutyet": 783,
      "uny": 784,
      "kiny": 785,
      "pii": 786,
      "ru": 787,
      "neng": 788,
      "poror": 789,
      ".’": 790,
      "ha": 791,
      "thah": 792,
      "kiptai": 793,
      "ishet": 794,
      "rot": 795,
      "ool": 796,
      "chame": 797,
      "Ka": 798,
      "uul": 799,
      "togos": 800,
      "yachi": 801,
      "tisiindet": 802,
      "lagogap": 803,
      "yooto": 804,
      "ndos": 805,
      "neegit": 806,
      "cheeng": 807,
      "thahabu": 808,
      "konyi": 809,
      "kita": 810,
      "missing": 811,
      "Mwa": 812,
      "sob": 813,
      "koleen": 814,
      "Kab": 815,
      "ennyo": 816,
      "taba": 817,
      "komoswek": 818,
      "kiki": 819,
      "kobwa": 820,
      "Yei": 821,
      "won": 822,
      "uusyek": 823,
      "peetuusye": 824,
      "konam": 825,
      "keele": 826,
      "weeriik": 827,
      "aw": 828,
      "kosir": 829,
      "tomo": 830,
      "Jeh": 831,
      "urer": 832,
      "mwachi": 833,
      "ishek": 834,
      "etapkei": 835,
      "kaa": 836,
      "ngoroik": 837,
      "kota": 838,
      "kwenutap": 839,
      "Mi": 840,
      "Jakobo": 841,
      "peetuutap": 842,
      "igoochi": 843,
      "kanam": 844,
      "tupche": 845,
      "ortinwek": 846,
      "Saulo": 847,
      "kany": 848,
      "muut": 849,
      "kaal": 850,
      "koor": 851,
      "kasarta": 852,
      "neree": 853,
      "Yeityo": 854,
      "ais": 855,
      "mang": 856,
      "inde": 857,
      "punu": 858,
      "ageer": 859,
      "much": 860,
      "jo": 861,
      "teb": 862,
      "Weer": 863,
      "ooreet": 864,
      "Sh": 865,
      "puu": 866,
      "nyol": 867,
      "yach": 868,
      "anik": 869,
      "kityo": 870,
      "eliphuusyek": 871,
      "sait": 872,
      "keel": 873,
      "koki": 874,
      "kaalyeet": 875,
      "imuuchi": 876,
      "karon": 877,
      "yen": 878,
      "tan": 879,
      "iti": 880,
      "asiis": 881,
      "ming": 882,
      "magat": 883,
      "mung": 884,
      "tupch": 885,
      "Si": 886,
      "tes": 887,
      "ochei": 888,
      "ari": 889,
      "iliil": 890,
      "ibu": 891,
      "per": 892,
      "ete": 893,
      "oosyek": 894,
      "poisyet": 895,
      "tuwai": 896,
      "eennyi": 897,
      "olyoond": 898,
      "Kol": 899,
      "di": 900,
      "ookto": 901,
      "olyootap": 902,
      "gai": 903,
      "kwony": 904,
      "Ara": 905,
      "mwai": 906,
      "yaityet": 907,
      "eph": 908,
      "eelei": 909,
      "Ngot": 910,
      "iitei": 911,
      "wolji": 912,
      "ato": 913,
      "kurg": 914,
      "ndang": 915,
      "isyei": 916,
      "boiboi": 917,
      "chiir": 918,
      "keechiir": 919,
      "nyan": 920,
      "fed": 921,
      "gor": 922,
      "eg": 923,
      "kagoochinet": 924,
      "wee": 925,
      "inyei": 926,
      "neo": 927,
      "Ineendet": 928,
      "Ngo": 929,
      "Yah": 930,
      "ndanyu": 931,
      "utaat": 932,
      "anet": 933,
      "nyig": 934,
      "tukul": 935,
      "sur": 936,
      "koik": 937,
      "kimi": 938,
      "Yahud": 939,
      "ateb": 940,
      "chik": 941,
      "muchi": 942,
      "weetap": 943,
      "anyi": 944,
      "eth": 945,
      "kiim": 946,
      "ingo": 947,
      "';": 948,
      "tainik": 949,
      "Aron": 950,
      "sugu": 951,
      "tebee": 952,
      "ikai": 953,
      "yaak": 954,
      "chet": 955,
      "ere": 956,
      "peetuunooto": 957,
      "kamet": 958,
      "nyanj": 959,
      "Law": 960,
      "eri": 961,
      "wekwak": 962,
      "eecheen": 963,
      "ngalek": 964,
      "Ingo": 965,
      "kamu": 966,
      "yos": 967,
      "aror": 968,
      "yetap": 969,
      "otwogind": 970,
      "ake": 971,
      "ite": 972,
      "yegap": 973,
      "kogas": 974,
      "ath": 975,
      "innyi": 976,
      "acheek": 977,
      "siir": 978,
      "too": 979,
      "yon": 980,
      "amd": 981,
      "mai": 982,
      "kik": 983,
      "ooreetap": 984,
      "chito": 985,
      "ita": 986,
      "Phil": 987,
      "nech": 988,
      "kotes": 989,
      "tip": 990,
      "barak": 991,
      "kaptis": 992,
      "pichooto": 993,
      "murot": 994,
      "oab": 995,
      "echer": 996,
      "Mwaei": 997,
      "rai": 998,
      "konyil": 999,
      "tum": 1000,
      "aibai": 1001,
      "nganasook": 1002,
      "ain": 1003,
      "tisiik": 1004,
      "murenik": 1005,
      "Koleenji": 1006,
      "weny": 1007,
      "kotinyei": 1008,
      "Kamuktaindetap": 1009,
      "mong": 1010,
      "Kabuu": 1011,
      "surkwen": 1012,
      "uni": 1013,
      "Ag": 1014,
      "ayai": 1015,
      "rani": 1016,
      "maot": 1017,
      "kogoochi": 1018,
      "rotwetap": 1019,
      "ate": 1020,
      "aru": 1021,
      "ishe": 1022,
      "omon": 1023,
      "Tiliil": 1024,
      "riir": 1025,
      "lewen": 1026,
      "oorchi": 1027,
      "kaman": 1028,
      "robinik": 1029,
      "korotiik": 1030,
      "koip": 1031,
      "ingen": 1032,
      "Yahudik": 1033,
      "mak": 1034,
      "machei": 1035,
      "marii": 1036,
      "Ing": 1037,
      "sai": 1038,
      "kiguure": 1039,
      "emot": 1040,
      "tiptem": 1041,
      "eutap": 1042,
      "mb": 1043,
      "chom": 1044,
      "yond": 1045,
      "chepto": 1046,
      "ri": 1047,
      "amut": 1048,
      "etu": 1049,
      "anyiny": 1050,
      "tye": 1051,
      "kigo": 1052,
      "yigei": 1053,
      "no": 1054,
      "oya": 1055,
      "lugoosyek": 1056,
      "ingei": 1057,
      "iyot": 1058,
      "anda": 1059,
      "ormarii": 1060,
      "aret": 1061,
      "osot": 1062,
      "eunek": 1063,
      "aat": 1064,
      "kando": 1065,
      "chiichooto": 1066,
      "ena": 1067,
      "kibeelei": 1068,
      "ua": 1069,
      "iibiik": 1070,
      "logoek": 1071,
      "Laitor": 1072,
      "shek": 1073,
      "ikyik": 1074,
      "iyai": 1075,
      "tilii": 1076,
      "kora": 1077,
      "pta": 1078,
      "koam": 1079,
      "ini": 1080,
      "uun": 1081,
      "otwogik": 1082,
      "gek": 1083,
      "olomon": 1084,
      "kiptaiyand": 1085,
      "Kor": 1086,
      "Solomon": 1087,
      "yomis": 1088,
      "tuloon": 1089,
      "min": 1090,
      "piikyik": 1091,
      "iywei": 1092,
      "tupchosyek": 1093,
      "wook": 1094,
      "yr": 1095,
      "kiti": 1096,
      "chiitap": 1097,
      "eunnyi": 1098,
      "Philis": 1099,
      "ham": 1100,
      "inee": 1101,
      "ken": 1102,
      "ona": 1103,
      "komong": 1104,
      "kain": 1105,
      "konai": 1106,
      "lap": 1107,
      "elek": 1108,
      "kuti": 1109,
      "nyoo": 1110,
      "kwak": 1111,
      "indap": 1112,
      "yeityo": 1113,
      "nereegek": 1114,
      "kisir": 1115,
      "tiliileen": 1116,
      "puch": 1117,
      "iset": 1118,
      "keg": 1119,
      "ush": 1120,
      "atuutik": 1121,
      "porot": 1122,
      "konde": 1123,
      "mala": 1124,
      "ila": 1125,
      "chob": 1126,
      "atee": 1127,
      "komosta": 1128,
      "poisyonik": 1129,
      "kaptisisyet": 1130,
      "imut": 1131,
      "ph": 1132,
      "anooto": 1133,
      "Jos": 1134,
      "teer": 1135,
      "kasub": 1136,
      "Bab": 1137,
      "ywei": 1138,
      "kaya": 1139,
      "ibe": 1140,
      "kwandanyi": 1141,
      "atet": 1142,
      "weeriinnyi": 1143,
      "indetap": 1144,
      "Kwa": 1145,
      "uuk": 1146,
      "kaat": 1147,
      "sis": 1148,
      "irim": 1149,
      "gar": 1150,
      "eei": 1151,
      "kipsoman": 1152,
      "somanet": 1153,
      "ote": 1154,
      "kanet": 1155,
      "araoh": 1156,
      "Pharaoh": 1157,
      "Ib": 1158,
      "wani": 1159,
      "ebi": 1160,
      "emotinwek": 1161,
      "yria": 1162,
      "Babil": 1163,
      "iwe": 1164,
      "miitei": 1165,
      "rub": 1166,
      "koto": 1167,
      "iitap": 1168,
      "fedha": 1169,
      "koror": 1170,
      "alaalji": 1171,
      "neegitee": 1172,
      "malaikai": 1173,
      "amat": 1174,
      "tabaan": 1175,
      "uuch": 1176,
      "woti": 1177,
      "uku": 1178,
      "agaak": 1179,
      "Babilon": 1180,
      "yingei": 1181,
      "kagoochinoik": 1182,
      "kirwoog": 1183,
      "atutik": 1184,
      "eere": 1185,
      "kin": 1186,
      "itei": 1187,
      "kemoi": 1188,
      "kabat": 1189,
      "kandoi": 1190,
      "An": 1191,
      "asu": 1192,
      "muguleldo": 1193,
      "Keero": 1194,
      "elel": 1195,
      "sog": 1196,
      "koroi": 1197,
      "Che": 1198,
      "tuiye": 1199,
      "Ben": 1200,
      "ane": 1201,
      "li": 1202,
      "komut": 1203,
      "ering": 1204,
      "kimnateet": 1205,
      "Kig": 1206,
      "lem": 1207,
      "mata": 1208,
      "kobek": 1209,
      "aach": 1210,
      "Lawiik": 1211,
      "anyu": 1212,
      "old": 1213,
      "tyong": 1214,
      "Ah": 1215,
      "aar": 1216,
      "itap": 1217,
      "Beth": 1218,
      "kotugul": 1219,
      "mutik": 1220,
      "tono": 1221,
      "nyanjet": 1222,
      "Kago": 1223,
      "riib": 1224,
      "amin": 1225,
      "kotee": 1226,
      "laitornatet": 1227,
      "Joseph": 1228,
      "neki": 1229,
      "ateet": 1230,
      "esh": 1231,
      "cheb": 1232,
      "taing": 1233,
      "ero": 1234,
      "unei": 1235,
      "koonnyi": 1236,
      "Tom": 1237,
      "imu": 1238,
      "amukta": 1239,
      "kongoi": 1240,
      "isiet": 1241,
      "lakwet": 1242,
      "kirwooget": 1243,
      "tiik": 1244,
      "konyek": 1245,
      "arai": 1246,
      "kimnat": 1247,
      "Amat": 1248,
      "muren": 1249,
      "keechiirek": 1250,
      "ie": 1251,
      "koweek": 1252,
      "kipsomaninik": 1253,
      "Nooto": 1254,
      "meet": 1255,
      "sos": 1256,
      "ord": 1257,
      "unot": 1258,
      "boisie": 1259,
      "kutit": 1260,
      "myach": 1261,
      "akenge": 1262,
      "raham": 1263,
      "Abraham": 1264,
      "iyo": 1265,
      "chuuto": 1266,
      "eti": 1267,
      "end": 1268,
      "wiir": 1269,
      "komyee": 1270,
      "tim": 1271,
      "Ogeero": 1272,
      "kabwa": 1273,
      "kanamonik": 1274,
      "tuloonook": 1275,
      "Philistiik": 1276,
      "kak": 1277,
      "loo": 1278,
      "rwa": 1279,
      "koya": 1280,
      "kitab": 1281,
      "poiboi": 1282,
      "ekal": 1283,
      "natetap": 1284,
      "nennyu": 1285,
      "kagoochinetap": 1286,
      "puunik": 1287,
      "lapkei": 1288,
      "sta": 1289,
      "ald": 1290,
      "eenik": 1291,
      "piikyuk": 1292,
      "togosta": 1293,
      "eruur": 1294,
      "onok": 1295,
      "aleegap": 1296,
      "kaata": 1297,
      "ogeero": 1298,
      "arawet": 1299,
      "kito": 1300,
      "kwong": 1301,
      "paor": 1302,
      "goitoi": 1303,
      "keelyek": 1304,
      "lembe": 1305,
      "ben": 1306,
      "ion": 1307,
      "wend": 1308,
      "Kabuuset": 1309,
      "yag": 1310,
      "ibuk": 1311,
      "nyoon": 1312,
      "kiah": 1313,
      "mogor": 1314,
      "kaataam": 1315,
      "!”": 1316,
      "igo": 1317,
      "choor": 1318,
      "nyamd": 1319,
      "ase": 1320,
      "komostap": 1321,
      "yini": 1322,
      "nnyu": 1323,
      "ichek": 1324,
      "chamei": 1325,
      "naet": 1326,
      "komie": 1327,
      "betut": 1328,
      "Laitoryat": 1329,
      "egap": 1330,
      "kok": 1331,
      "Keny": 1332,
      "Eli": 1333,
      "chut": 1334,
      "nye": 1335,
      "kainennyi": 1336,
      "kiboit": 1337,
      "gaa": 1338,
      "nyooru": 1339,
      "sabibuk": 1340,
      "osi": 1341,
      "kenyiit": 1342,
      "saboondanyu": 1343,
      "chen": 1344,
      "ndei": 1345,
      "kalyet": 1346,
      "oyai": 1347,
      "ista": 1348,
      "tet": 1349,
      "kooi": 1350,
      "kainetap": 1351,
      "Josh": 1352,
      "ay": 1353,
      "az": 1354,
      "beek": 1355,
      "riip": 1356,
      "ikwak": 1357,
      "tiseiy": 1358,
      "waiwok": 1359,
      "parais": 1360,
      "Joshua": 1361,
      "Eph": 1362,
      "Po": 1363,
      "ngory": 1364,
      "Kim": 1365,
      "enyu": 1366,
      "obo": 1367,
      "kayomis": 1368,
      "koger": 1369,
      "tamanwogik": 1370,
      "notok": 1371,
      "ja": 1372,
      "poorto": 1373,
      "chamyet": 1374,
      "yiem": 1375,
      "olyoot": 1376,
      "kogo": 1377,
      "mir": 1378,
      "kome": 1379,
      "iinik": 1380,
      "emai": 1381,
      "koroor": 1382,
      "ropta": 1383,
      "kebeberta": 1384,
      "div": 1385,
      "tukuk": 1386,
      "ez": 1387,
      "mer": 1388,
      "kotu": 1389,
      "kotoret": 1390,
      "alee": 1391,
      "konet": 1392,
      "jini": 1393,
      "kobunji": 1394,
      "tokyingei": 1395,
      "mitainik": 1396,
      "omwa": 1397,
      "Ama": 1398,
      "ikal": 1399,
      "atinye": 1400,
      "euut": 1401,
      "engeg": 1402,
      "taban": 1403,
      "kutu": 1404,
      "saang": 1405,
      "Miten": 1406,
      "pwa": 1407,
      "otin": 1408,
      "kaneet": 1409,
      "wechei": 1410,
      "myeeindo": 1411,
      "nyolu": 1412,
      "kebe": 1413,
      "emait": 1414,
      "kamang": 1415,
      "kwenun": 1416,
      "tuguuchooto": 1417,
      "siirei": 1418,
      "yeng": 1419,
      "ootiin": 1420,
      "pounik": 1421,
      "Pet": 1422,
      "kang": 1423,
      "pek": 1424,
      "aigai": 1425,
      "tiibiik": 1426,
      "kerii": 1427,
      "pol": 1428,
      "parag": 1429,
      "isub": 1430,
      "amun": 1431,
      "chil": 1432,
      "ngei": 1433,
      "unetap": 1434,
      "koroom": 1435,
      "usyek": 1436,
      "Sam": 1437,
      "unu": 1438,
      "kobut": 1439,
      "imwa": 1440,
      "iyookto": 1441,
      "konyoor": 1442,
      "perber": 1443,
      "sik": 1444,
      "maotik": 1445,
      "mutai": 1446,
      "rireen": 1447,
      "sobet": 1448,
      "ae": 1449,
      "ngen": 1450,
      "tagei": 1451,
      "koboi": 1452,
      "kergei": 1453,
      "amache": 1454,
      "aam": 1455,
      "nai": 1456,
      "nem": 1457,
      "kitu": 1458,
      "kobog": 1459,
      "kerer": 1460,
      "iton": 1461,
      "mwaita": 1462,
      "tengeg": 1463,
      "igoor": 1464,
      "kasit": 1465,
      "divaik": 1466,
      "Kis": 1467,
      "eung": 1468,
      "koti": 1469,
      "cher": 1470,
      "aph": 1471,
      "peetuusyegap": 1472,
      "kooriik": 1473,
      "Ig": 1474,
      "kotonon": 1475,
      "chech": 1476,
      "aria": 1477,
      "oman": 1478,
      "weeriit": 1479,
      "ngetap": 1480,
      "chigei": 1481,
      "komeny": 1482,
      "kotebee": 1483,
      "laitoran": 1484,
      "cheptap": 1485,
      "Kob": 1486,
      "kiyai": 1487,
      "kandoik": 1488,
      "ineegei": 1489,
      "seet": 1490,
      "eto": 1491,
      "yotap": 1492,
      "laitorinik": 1493,
      "emi": 1494,
      "oong": 1495,
      "kwondo": 1496,
      "oono": 1497,
      "weeriikyik": 1498,
      "Jord": 1499,
      "Kar": 1500,
      "Moab": 1501,
      "endo": 1502,
      "iguk": 1503,
      "keng": 1504,
      "kuur": 1505,
      "lum": 1506,
      "tanyi": 1507,
      "iywek": 1508,
      "itos": 1509,
      "kaboor": 1510,
      "pata": 1511,
      "komwachi": 1512,
      "tainnyi": 1513,
      "Jordan": 1514,
      "mon": 1515,
      "sar": 1516,
      "nea": 1517,
      "kii": 1518,
      "nyii": 1519,
      "kariik": 1520,
      "sabei": 1521,
      "ekiah": 1522,
      "tyen": 1523,
      "yam": 1524,
      "inigap": 1525,
      "Kiki": 1526,
      "okto": 1527,
      "wekwok": 1528,
      "meto": 1529,
      "maotyot": 1530,
      "kayaneet": 1531,
      "ileenji": 1532,
      "korona": 1533,
      "oonin": 1534,
      "Aa": 1535,
      "buku": 1536,
      "saa": 1537,
      "wokik": 1538,
      "kiptengeg": 1539,
      "karit": 1540,
      "kamukta": 1541,
      "oche": 1542,
      "wer": 1543,
      "kara": 1544,
      "saboon": 1545,
      "kogu": 1546,
      "ulda": 1547,
      "Ny": 1548,
      "Tinyei": 1549,
      "kituiye": 1550,
      "agat": 1551,
      "oli": 1552,
      "kibar": 1553,
      "moinget": 1554,
      "piitu": 1555,
      "Ephrai": 1556,
      "Kamuktaindennyo": 1557,
      "tulweet": 1558,
      "ortin": 1559,
      "aku": 1560,
      "oogap": 1561,
      "atinwek": 1562,
      "tait": 1563,
      "kobatee": 1564,
      "betu": 1565,
      "nyalilda": 1566,
      "Kenya": 1567,
      "jamin": 1568,
      "sang": 1569,
      "alal": 1570,
      "kemo": 1571,
      "onigap": 1572,
      "sosom": 1573,
      "Ephraim": 1574,
      "Joh": 1575,
      "angen": 1576,
      "ibei": 1577,
      "teeg": 1578,
      "Kib": 1579,
      "ash": 1580,
      "oochini": 1581,
      "serikal": 1582,
      "piit": 1583,
      "yennyi": 1584,
      "kila": 1585,
      "oror": 1586,
      "yeguk": 1587,
      "kandoindet": 1588,
      "kiptengeginik": 1589,
      "miten": 1590,
      "kond": 1591,
      "uga": 1592,
      "tulweetap": 1593,
      "kobunu": 1594,
      "sigir": 1595,
      "Benjamin": 1596,
      "'.”": 1597,
      "Egu": 1598,
      "doi": 1599,
      "anai": 1600,
      "agas": 1601,
      "pou": 1602,
      "ebe": 1603,
      "manong": 1604,
      "boisiet": 1605,
      "erber": 1606,
      "emetab": 1607,
      "keetiik": 1608,
      "mesu": 1609,
      "Anan": 1610,
      "tang": 1611,
      "ati": 1612,
      "iyook": 1613,
      "utaatyet": 1614,
      "kiptaiyandennyu": 1615,
      "sap": 1616,
      "iitu": 1617,
      "aiah": 1618,
      "innyu": 1619,
      "itinye": 1620,
      "oigap": 1621,
      "sere": 1622,
      "piiguk": 1623,
      "peetuusyechooto": 1624,
      "karaaran": 1625,
      "aany": 1626,
      "gin": 1627,
      "kimwa": 1628,
      "cheng": 1629,
      "toe": 1630,
      "aba": 1631,
      "Cham": 1632,
      "muguleldanyi": 1633,
      "kutitap": 1634,
      "mesundei": 1635,
      "Ole": 1636,
      "kinam": 1637,
      "atiin": 1638,
      "keyai": 1639,
      "yoe": 1640,
      "usoon": 1641,
      "igeer": 1642,
      "konor": 1643,
      "saboondo": 1644,
      "eechen": 1645,
      "iek": 1646,
      "menge": 1647,
      "nyoru": 1648,
      "erteer": 1649,
      "yaach": 1650,
      "tengekwogik": 1651,
      "muguleldanyu": 1652,
      "agaakta": 1653,
      "poiboiyet": 1654,
      ",“": 1655,
      "men": 1656,
      "kinde": 1657,
      "kebar": 1658,
      "jigei": 1659,
      "indoi": 1660,
      "waati": 1661,
      "sisiit": 1662,
      "mas": 1663,
      "asoya": 1664,
      "Paulo": 1665,
      "imi": 1666,
      "op": 1667,
      "nyoor": 1668,
      "unoto": 1669,
      "ili": 1670,
      "imanit": 1671,
      "kiimeen": 1672,
      "otwogindeng": 1673,
      "athan": 1674,
      "rubeet": 1675,
      "lembech": 1676,
      "mesundeito": 1677,
      "Kag": 1678,
      "iegu": 1679,
      "muu": 1680,
      "sal": 1681,
      "tek": 1682,
      "toek": 1683,
      "konyor": 1684,
      "eunegap": 1685,
      "magatiinik": 1686,
      "ogu": 1687,
      "nyon": 1688,
      "onai": 1689,
      "osup": 1690,
      "mie": 1691,
      "obe": 1692,
      "chub": 1693,
      "pichu": 1694,
      "koroito": 1695,
      "oeng": 1696,
      "kola": 1697,
      "bol": 1698,
      "utye": 1699,
      "itoi": 1700,
      "kamwa": 1701,
      "Kik": 1702,
      "Zion": 1703,
      "gi": 1704,
      "kotok": 1705,
      "etai": 1706,
      "enet": 1707,
      "unoik": 1708,
      "asei": 1709,
      "isie": 1710,
      "teg": 1711,
      "Kiptoo": 1712,
      "sabato": 1713,
      "lakok": 1714,
      "kwang": 1715,
      "kirwoogu": 1716,
      "kokwet": 1717,
      "Kora": 1718,
      "lapkeiyet": 1719,
      "Kii": 1720,
      "ea": 1721,
      "id": 1722,
      "kwe": 1723,
      "ron": 1724,
      "nyin": 1725,
      "isa": 1726,
      "otinye": 1727,
      "iri": 1728,
      "chinet": 1729,
      "Chu": 1730,
      "ketik": 1731,
      "nyoonei": 1732,
      "pany": 1733,
      "wone": 1734,
      "asiista": 1735,
      "poisyetap": 1736,
      "akoi": 1737,
      "kiwot": 1738,
      "tosyek": 1739,
      "uchuuto": 1740,
      "sugun": 1741,
      "otwogikyik": 1742,
      "paraisisyek": 1743,
      "Bo": 1744,
      "Kana": 1745,
      "jah": 1746,
      "mwan": 1747,
      "kay": 1748,
      "kwanisyekwak": 1749,
      "kororon": 1750,
      "kek": 1751,
      "nyas": 1752,
      "inai": 1753,
      "asa": 1754,
      "ire": 1755,
      "iyum": 1756,
      "konom": 1757,
      "tep": 1758,
      "artam": 1759,
      "keetit": 1760,
      "Agot": 1761,
      "oboam": 1762,
      "melek": 1763,
      "not": 1764,
      "aiga": 1765,
      "atep": 1766,
      "tuguuchuuto": 1767,
      "kata": 1768,
      "koros": 1769,
      "kaineng": 1770,
      "moingetap": 1771,
      "Weeriigap": 1772,
      "Koi": 1773,
      "karun": 1774,
      "tononi": 1775,
      "kobargei": 1776,
      "sugul": 1777,
      "Hekal": 1778,
      "dom": 1779,
      "ich": 1780,
      "sip": 1781,
      "onor": 1782,
      "Chom": 1783,
      "kwenung": 1784,
      "kalas": 1785,
      "tuguuchu": 1786,
      "boiboiyet": 1787,
      "kutus": 1788,
      "emiah": 1789,
      "io": 1790,
      "emonooto": 1791,
      "koriir": 1792,
      "neranik": 1793,
      "Kwanda": 1794,
      "Petero": 1795,
      "mam": 1796,
      "chuk": 1797,
      "etee": 1798,
      "kimu": 1799,
      "taag": 1800,
      "agoochi": 1801,
      "yay": 1802,
      "tuiyo": 1803,
      "logoiywek": 1804,
      "pororyet": 1805,
      "kooriigap": 1806,
      "nyamdutik": 1807,
      "Manas": 1808,
      "Tuun": 1809,
      "orit": 1810,
      "manda": 1811,
      "eunnyu": 1812,
      "kamanut": 1813,
      "seh": 1814,
      "enyo": 1815,
      "komanda": 1816,
      "kwandang": 1817,
      "choronok": 1818,
      "Manasseh": 1819,
      "Ke": 1820,
      "Ong": 1821,
      "itabaan": 1822,
      "tug": 1823,
      "ono": 1824,
      "onam": 1825,
      "kituiyechin": 1826,
      "Samu": 1827,
      "lol": 1828,
      "ten": 1829,
      "aksei": 1830,
      "len": 1831,
      "kobeel": 1832,
      "toriit": 1833,
      "chepyos": 1834,
      "kaniset": 1835,
      "Joab": 1836,
      "yani": 1837,
      "nyor": 1838,
      "kobet": 1839,
      "uutik": 1840,
      "Jeremiah": 1841,
      "atuutyetap": 1842,
      "omi": 1843,
      "rap": 1844,
      "kop": 1845,
      "koibu": 1846,
      "mito": 1847,
      "emoni": 1848,
      "minutik": 1849,
      "serikalit": 1850,
      "ses": 1851,
      "agen": 1852,
      "aib": 1853,
      "kiyag": 1854,
      "mengeechen": 1855,
      "muguleldang": 1856,
      "utigap": 1857,
      "Ha": 1858,
      "Nee": 1859,
      "pool": 1860,
      "sto": 1861,
      "oniito": 1862,
      "asta": 1863,
      "eennyu": 1864,
      "imen": 1865,
      "kagog": 1866,
      "Weeriitap": 1867,
      "Samuel": 1868,
      "gik": 1869,
      "kainennyu": 1870,
      "keerei": 1871,
      "timiin": 1872,
      "Syria": 1873,
      "rib": 1874,
      "ndek": 1875,
      "yaache": 1876,
      "kigoochi": 1877,
      "alaali": 1878,
      "Ass": 1879,
      "chek": 1880,
      "inet": 1881,
      "osoya": 1882,
      "eskei": 1883,
      "koriip": 1884,
      "ania": 1885,
      "tebyei": 1886,
      "mwanik": 1887,
      "yoni": 1888,
      "koib": 1889,
      "yem": 1890,
      "imit": 1891,
      "kwok": 1892,
      "ogas": 1893,
      "Chep": 1894,
      "waita": 1895,
      "ilead": 1896,
      "eesyo": 1897,
      "unyek": 1898,
      "Jon": 1899,
      "akot": 1900,
      "sus": 1901,
      "nganda": 1902,
      "kem": 1903,
      "Ni": 1904,
      "Ui": 1905,
      "sot": 1906,
      "yamei": 1907,
      "alda": 1908,
      "kibagenge": 1909,
      "utiet": 1910,
      "kebebertap": 1911,
      "unotiin": 1912,
      "Johana": 1913,
      "Re": 1914,
      "luu": 1915,
      "teech": 1916,
      "kitupche": 1917,
      "kiwechei": 1918,
      "metit": 1919,
      "koleenjo": 1920,
      "raini": 1921,
      "teek": 1922,
      "tutik": 1923,
      "oratinwek": 1924,
      "boishet": 1925,
      "yachen": 1926,
      "mog": 1927,
      "iyan": 1928,
      "piriir": 1929,
      "ushek": 1930,
      "Ine": 1931,
      "Ker": 1932,
      "sia": 1933,
      "boish": 1934,
      "kagaiga": 1935,
      "kites": 1936,
      "kamanuut": 1937,
      "Assyria": 1938,
      "dos": 1939,
      "enyi": 1940,
      "ogeer": 1941,
      "oonok": 1942,
      "Jeho": 1943,
      "kasubikyik": 1944,
      "Hekaluut": 1945,
      "ande": 1946,
      "ele": 1947,
      "poisyek": 1948,
      "tir": 1949,
      "oldo": 1950,
      "eba": 1951,
      "natennyi": 1952,
      "kenyit": 1953,
      "Kowolji": 1954,
      "lakweet": 1955,
      "arorutyet": 1956,
      "lal": 1957,
      "itit": 1958,
      "chir": 1959,
      "anyo": 1960,
      "icheegei": 1961,
      "enye": 1962,
      "kiptainik": 1963,
      "tech": 1964,
      "koigei": 1965,
      "Kamuktaindennyu": 1966,
      "Hez": 1967,
      "mel": 1968,
      "rab": 1969,
      "ndoe": 1970,
      "Isak": 1971,
      "boisionik": 1972,
      "tainnyu": 1973,
      "Hezekiah": 1974,
      "Kole": 1975,
      "komu": 1976,
      "abwat": 1977,
      "itoo": 1978,
      "mion": 1979,
      "kwai": 1980,
      "ooktoi": 1981,
      "nganaseetap": 1982,
      "mugulelwekwak": 1983,
      "kutinnyi": 1984,
      "kotom": 1985,
      "paragutap": 1986,
      "ortinwegap": 1987,
      "woneen": 1988,
      "kosich": 1989,
      "amune": 1990,
      "kenyiitap": 1991,
      "teegisto": 1992,
      "usoonet": 1993,
      "Mak": 1994,
      "Uu": 1995,
      "leel": 1996,
      "oegu": 1997,
      "peegap": 1998,
      "walak": 1999,
      "koisto": 2000,
      "tuuga": 2001,
      "aisyek": 2002,
      "waa": 2003,
      "ibinwek": 2004,
      "nito": 2005,
      "woonei": 2006,
      "ganda": 2007,
      "aibaitu": 2008,
      "isubi": 2009,
      "Baal": 2010,
      "Uganda": 2011,
      "ayae": 2012,
      "mos": 2013,
      "cheki": 2014,
      "King": 2015,
      "ibut": 2016,
      "kimnatet": 2017,
      "kurgeetap": 2018,
      "Neb": 2019,
      "Ob": 2020,
      "au": 2021,
      "achame": 2022,
      "nepo": 2023,
      "kioto": 2024,
      "kimut": 2025,
      "nereek": 2026,
      "pounindet": 2027,
      "tuguugap": 2028,
      "pororiet": 2029,
      "nyiitaat": 2030,
      "Kas": 2031,
      "kotor": 2032,
      "ndit": 2033,
      "atetap": 2034,
      "ina": 2035,
      "key": 2036,
      "irir": 2037,
      "ishiet": 2038,
      "she": 2039,
      "Simion": 2040,
      "araita": 2041,
      "Jonathan": 2042,
      "Ad": 2043,
      "mogo": 2044,
      "kirokto": 2045,
      "keebe": 2046,
      "oryan": 2047,
      "koita": 2048,
      "kitigin": 2049,
      "wanindo": 2050,
      "Mat": 2051,
      "koosup": 2052,
      "nenyi": 2053,
      "itik": 2054,
      "asista": 2055,
      "kum": 2056,
      "yweis": 2057,
      "Samaria": 2058,
      "awo": 2059,
      "det": 2060,
      "ekat": 2061,
      "koboot": 2062,
      "koriik": 2063,
      "kages": 2064,
      "kagui": 2065,
      "Chang": 2066,
      "isyegap": 2067,
      "ortinwekwak": 2068,
      "nyoljin": 2069,
      "ormariich": 2070,
      "yaacheen": 2071,
      "kagaigaet": 2072,
      "bur": 2073,
      "iko": 2074,
      "rat": 2075,
      "tit": 2076,
      "wi": 2077,
      "neoo": 2078,
      "katun": 2079,
      "olo": 2080,
      "chiichi": 2081,
      "laitornatetap": 2082,
      "igas": 2083,
      "kobootok": 2084,
      "natosyek": 2085,
      "mengi": 2086,
      "korooron": 2087,
      "kobooten": 2088,
      "Bar": 2089,
      "Iman": 2090,
      "awe": 2091,
      "kocheeng": 2092,
      "orik": 2093,
      "aineet": 2094,
      "alek": 2095,
      "laitorinigap": 2096,
      "saboondanyi": 2097,
      "kanyool": 2098,
      "kwenunnywa": 2099,
      "keriinget": 2100,
      "Ham": 2101,
      "Som": 2102,
      "awendi": 2103,
      "nji": 2104,
      "chur": 2105,
      "kosulda": 2106,
      "tuguukyik": 2107,
      "kapkoros": 2108,
      "ormariichet": 2109,
      "rur": 2110,
      "ngegu": 2111,
      "chero": 2112,
      "iberuur": 2113,
      "igoochin": 2114,
      "ookyi": 2115,
      "kosap": 2116,
      "atun": 2117,
      "Kiptaiyand": 2118,
      "serkal": 2119,
      "kwonyooto": 2120,
      "':": 2121,
      "kotinye": 2122,
      "chog": 2123,
      "nyet": 2124,
      "tal": 2125,
      "osyegap": 2126,
      "imuuch": 2127,
      "uruuk": 2128,
      "ige": 2129,
      "chamiet": 2130,
      "kosar": 2131,
      "konyal": 2132,
      "beruur": 2133,
      "koyum": 2134,
      "kutinnyu": 2135,
      "'?": 2136,
      "Ii": 2137,
      "Mo": 2138,
      "bee": 2139,
      "sok": 2140,
      "uto": 2141,
      "kochop": 2142,
      "kotomo": 2143,
      "kiyae": 2144,
      "yaat": 2145,
      "tegei": 2146,
      "imache": 2147,
      "eunekwak": 2148,
      "kiluul": 2149,
      "kochoor": 2150,
      "mengech": 2151,
      "Kale": 2152,
      "igu": 2153,
      "rip": 2154,
      "setap": 2155,
      "amwaiwok": 2156,
      "ekei": 2157,
      "tuiy": 2158,
      "kagoochi": 2159,
      "Kong": 2160,
      "Ammon": 2161,
      "toroornatet": 2162,
      "kwonyiik": 2163,
      "yonnyi": 2164,
      "wookyi": 2165,
      "iye": 2166,
      "ywo": 2167,
      "kocham": 2168,
      "ngung": 2169,
      "nenyu": 2170,
      "kima": 2171,
      "iiti": 2172,
      "aip": 2173,
      "ala": 2174,
      "wogigap": 2175,
      "kibet": 2176,
      "Chuuto": 2177,
      "aachi": 2178,
      "tupcho": 2179,
      "eiywek": 2180,
      "ariah": 2181,
      "tebeesi": 2182,
      "?’": 2183,
      "Achame": 2184,
      "Gilead": 2185,
      "bek": 2186,
      "ram": 2187,
      "umi": 2188,
      "gun": 2189,
      "muti": 2190,
      "asik": 2191,
      "sau": 2192,
      "sigik": 2193,
      "pororyetap": 2194,
      "shekel": 2195,
      "kabwaatutik": 2196,
      "kaguiyet": 2197,
      "piton": 2198,
      "pwoonei": 2199,
      "kotun": 2200,
      "tung": 2201,
      "Kimache": 2202,
      "erur": 2203,
      "kiptengek": 2204,
      "atuut": 2205,
      "isyee": 2206,
      "soma": 2207,
      "eunekyik": 2208,
      "nyoonji": 2209,
      "kobogor": 2210,
      "Me": 2211,
      "Pwo": 2212,
      "igei": 2213,
      "wennyi": 2214,
      "ngweny": 2215,
      "nyik": 2216,
      "arage": 2217,
      "woe": 2218,
      "chama": 2219,
      "kosub": 2220,
      "kabar": 2221,
      "boibo": 2222,
      "oryot": 2223,
      "Absal": 2224,
      "otwogigap": 2225,
      "oomin": 2226,
      "sogool": 2227,
      "tonone": 2228,
      "Absalom": 2229,
      "Ingot": 2230,
      "Por": 2231,
      "aki": 2232,
      "weng": 2233,
      "koguur": 2234,
      "ika": 2235,
      "ikab": 2236,
      "atind": 2237,
      "aris": 2238,
      "yechi": 2239,
      "emisyet": 2240,
      "kenyisiek": 2241,
      "kitee": 2242,
      "tupchosyekyik": 2243,
      "Kai": 2244,
      "long": 2245,
      "koong": 2246,
      "chicha": 2247,
      "yaa": 2248,
      "kotebi": 2249,
      "kochut": 2250,
      "kosirto": 2251,
      "riibei": 2252,
      "kaneetisy": 2253,
      "cherongo": 2254,
      "Kap": 2255,
      "pendi": 2256,
      "punei": 2257,
      "uka": 2258,
      "kogoito": 2259,
      "nyei": 2260,
      "tamb": 2261,
      "Kigo": 2262,
      "abe": 2263,
      "kalewen": 2264,
      "komosi": 2265,
      "imang": 2266,
      "pounindetap": 2267,
      "borto": 2268,
      "echereetap": 2269,
      "igoorto": 2270,
      "kuut": 2271,
      "mama": 2272,
      "eno": 2273,
      "kibir": 2274,
      "kasari": 2275,
      "chuchu": 2276,
      "chepk": 2277,
      "bukuit": 2278,
      "kutusweek": 2279,
      "Kot": 2280,
      "ichooto": 2281,
      "nin": 2282,
      "oam": 2283,
      "kowa": 2284,
      "aka": 2285,
      "taach": 2286,
      "aigap": 2287,
      "yech": 2288,
      "tien": 2289,
      "elye": 2290,
      "nyum": 2291,
      "kabwaat": 2292,
      "komang": 2293,
      "ureren": 2294,
      "boiboitu": 2295,
      "Elijah": 2296,
      "panyeek": 2297,
      "lib": 2298,
      "yum": 2299,
      "anani": 2300,
      "oia": 2301,
      "koleny": 2302,
      "kariisyek": 2303,
      "kaiyweis": 2304,
      "ndanywa": 2305,
      "banda": 2306,
      "osotyotap": 2307,
      "irimeet": 2308,
      "kanetik": 2309,
      "betusiek": 2310,
      "Esau": 2311,
      "bu": 2312,
      "lag": 2313,
      "koyo": 2314,
      "kotogosta": 2315,
      "aleenji": 2316,
      "agoba": 2317,
      "katan": 2318,
      "koteech": 2319,
      "koskoleny": 2320,
      "Jeroboam": 2321,
      "nereech": 2322,
      "mesto": 2323,
      "etundo": 2324,
      "wiirchi": 2325,
      "kotokyigei": 2326,
      "Asa": 2327,
      "Edom": 2328,
      "Na": 2329,
      "Or": 2330,
      "Ta": 2331,
      "riibiik": 2332,
      "nyun": 2333,
      "amis": 2334,
      "araran": 2335,
      "aragen": 2336,
      "kayan": 2337,
      "ebyei": 2338,
      "ibwaat": 2339,
      "iyas": 2340,
      "arawetap": 2341,
      "olyoondoniito": 2342,
      "osotyonnyi": 2343,
      "poroteet": 2344,
      "azar": 2345,
      "chilil": 2346,
      "Amache": 2347,
      "omu": 2348,
      "ngatutik": 2349,
      "isup": 2350,
      "Kir": 2351,
      "kobendi": 2352,
      "muget": 2353,
      "kele": 2354,
      "emeng": 2355,
      "chamin": 2356,
      "weeriinnyu": 2357,
      "Kowol": 2358,
      "pounigap": 2359,
      "ugul": 2360,
      "torooreen": 2361,
      "riree": 2362,
      "kirwoogutik": 2363,
      "njir": 2364,
      "pisto": 2365,
      "re": 2366,
      "kowendi": 2367,
      "oonen": 2368,
      "emei": 2369,
      "oindo": 2370,
      "konye": 2371,
      "murwon": 2372,
      "agaat": 2373,
      "riirek": 2374,
      "kiyagisye": 2375,
      "mengichik": 2376,
      "Jo": 2377,
      "igoito": 2378,
      "od": 2379,
      "ngol": 2380,
      "cheg": 2381,
      "eit": 2382,
      "obwa": 2383,
      "piret": 2384,
      "mungaret": 2385,
      "ormariichetap": 2386,
      "mugetuut": 2387,
      "Kom": 2388,
      "Ya": 2389,
      "koneet": 2390,
      "chal": 2391,
      "Kiga": 2392,
      "abba": 2393,
      "maki": 2394,
      "tie": 2395,
      "kometo": 2396,
      "karwoti": 2397,
      "konu": 2398,
      "isha": 2399,
      "koindo": 2400,
      "poisyonigap": 2401,
      "koyookto": 2402,
      "petut": 2403,
      "rireenet": 2404,
      "Heb": 2405,
      "keero": 2406,
      "non": 2407,
      "taab": 2408,
      "ekab": 2409,
      "aban": 2410,
      "abat": 2411,
      "abar": 2412,
      "oten": 2413,
      "komon": 2414,
      "kametap": 2415,
      "ongen": 2416,
      "Pharis": 2417,
      "amwae": 2418,
      "eesu": 2419,
      "egitu": 2420,
      "kasubik": 2421,
      "Ol": 2422,
      "etun": 2423,
      "tali": 2424,
      "leet": 2425,
      "anyoru": 2426,
      "raa": 2427,
      "kasei": 2428,
      "kingen": 2429,
      "mengit": 2430,
      "poipo": 2431,
      "Nebo": 2432,
      "fedh": 2433,
      "Porory": 2434,
      "Niito": 2435,
      "Oba": 2436,
      "soom": 2437,
      "neg": 2438,
      "neetap": 2439,
      "ekem": 2440,
      "araraita": 2441,
      "eeti": 2442,
      "ali": 2443,
      "otok": 2444,
      "kwandap": 2445,
      "nyalul": 2446,
      "ngoryeet": 2447,
      "saptos": 2448,
      "toriitik": 2449,
      "kiptengekyot": 2450,
      "itab": 2451,
      "iyae": 2452,
      "aket": 2453,
      "akta": 2454,
      "aget": 2455,
      "inne": 2456,
      "utei": 2457,
      "ilil": 2458,
      "koristo": 2459,
      "ibata": 2460,
      "waiwo": 2461,
      "ineet": 2462,
      "lach": 2463,
      "Abi": 2464,
      "ruto": 2465,
      "nyigoonen": 2466,
      "koteebe": 2467,
      "Pororyosyek": 2468,
      "Nyo": 2469,
      "iat": 2470,
      "utab": 2471,
      "koko": 2472,
      "kichut": 2473,
      "amet": 2474,
      "eetyo": 2475,
      "kobir": 2476,
      "aset": 2477,
      "kiger": 2478,
      "Misiriik": 2479,
      "sigiik": 2480,
      "piich": 2481,
      "Jehoia": 2482,
      "nereege": 2483,
      "tebi": 2484,
      "mining": 2485,
      "tonondos": 2486,
      "katanit": 2487,
      "igoitoi": 2488,
      "koyae": 2489,
      "kisi": 2490,
      "sil": 2491,
      "asit": 2492,
      "koru": 2493,
      "inyo": 2494,
      "moet": 2495,
      "kigoochin": 2496,
      "agane": 2497,
      "Ogas": 2498,
      "korotiigap": 2499,
      "Ahab": 2500,
      "seremut": 2501,
      "Kin": 2502,
      "Kamwa": 2503,
      "mor": 2504,
      "su": 2505,
      "koyachi": 2506,
      "kiwo": 2507,
      "koboor": 2508,
      "okwee": 2509,
      "kimuuchi": 2510,
      "konyoru": 2511,
      "tilei": 2512,
      "nametab": 2513,
      "otwogindet": 2514,
      "nguni": 2515,
      "keetiigap": 2516,
      "wati": 2517,
      "kokwennyi": 2518,
      "Somanet": 2519,
      "Gad": 2520,
      "Gibe": 2521,
      "lee": 2522,
      "pu": 2523,
      "son": 2524,
      "uung": 2525,
      "uutap": 2526,
      "imelek": 2527,
      "ibar": 2528,
      "metinnyi": 2529,
      "namei": 2530,
      "matinye": 2531,
      "rwandet": 2532,
      "keelyekyik": 2533,
      "Kanaan": 2534,
      "Jehov": 2535,
      "eeng": 2536,
      "kage": 2537,
      "koe": 2538,
      "akwo": 2539,
      "tamir": 2540,
      "alage": 2541,
      "osu": 2542,
      "kerub": 2543,
      "kirgit": 2544,
      "kampun": 2545,
      "kime": 2546,
      "uben": 2547,
      "echen": 2548,
      "somanetab": 2549,
      "mermer": 2550,
      "pooldet": 2551,
      "Gal": 2552,
      "kotoi": 2553,
      "negei": 2554,
      "iibe": 2555,
      "amo": 2556,
      "atennyi": 2557,
      "onon": 2558,
      "kobor": 2559,
      "kobot": 2560,
      "komwaita": 2561,
      "kibanan": 2562,
      "unen": 2563,
      "teweer": 2564,
      "tyony": 2565,
      "nganasanooto": 2566,
      "ketit": 2567,
      "tilil": 2568,
      "wanit": 2569,
      "kesutik": 2570,
      "kisik": 2571,
      "tainnywa": 2572,
      "amwaun": 2573,
      "Jehosh": 2574,
      "nyigan": 2575,
      "kaboorunet": 2576,
      "Reuben": 2577,
      "Inendet": 2578,
      "Al": 2579,
      "Atinye": 2580,
      "ema": 2581,
      "mom": 2582,
      "tya": 2583,
      "kowal": 2584,
      "chot": 2585,
      "nenyo": 2586,
      "chee": 2587,
      "ndab": 2588,
      "woni": 2589,
      "abei": 2590,
      "wang": 2591,
      "waan": 2592,
      "anyooru": 2593,
      "kotep": 2594,
      "kiptain": 2595,
      "kuin": 2596,
      "pooryeet": 2597,
      "kinyoru": 2598,
      "ngoroikyik": 2599,
      "olyoondoni": 2600,
      "emotinwekyik": 2601,
      "malaikaiyatap": 2602,
      "sugunonik": 2603,
      ",”": 2604,
      "Per": 2605,
      "Ser": 2606,
      "aek": 2607,
      "moor": 2608,
      "muuchi": 2609,
      "mami": 2610,
      "tiib": 2611,
      "koimen": 2612,
      "kiito": 2613,
      "kiyaei": 2614,
      "tau": 2615,
      "oop": 2616,
      "eik": 2617,
      "ise": 2618,
      "eme": 2619,
      "geit": 2620,
      "enyin": 2621,
      "obar": 2622,
      "kongete": 2623,
      "kasar": 2624,
      "pichii": 2625,
      "otwogiguk": 2626,
      "uiyo": 2627,
      "oshek": 2628,
      "tembur": 2629,
      "kwanisyekwok": 2630,
      "tamirmir": 2631,
      "mermereek": 2632,
      "Ang": 2633,
      "Keer": 2634,
      "Kald": 2635,
      "Mer": 2636,
      "kotar": 2637,
      "ngelel": 2638,
      "akyi": 2639,
      "iich": 2640,
      "ameche": 2641,
      "abo": 2642,
      "sim": 2643,
      "ndanyo": 2644,
      "kwanda": 2645,
      "chokchinet": 2646,
      "aphat": 2647,
      "Pharisaik": 2648,
      "Jehoshaphat": 2649,
      "Achicha": 2650,
      "Ket": 2651,
      "Kal": 2652,
      "Kog": 2653,
      "Mar": 2654,
      "ael": 2655,
      "aegu": 2656,
      "bi": 2657,
      "inda": 2658,
      "weri": 2659,
      "koyaei": 2660,
      "tolo": 2661,
      "agei": 2662,
      "agoochini": 2663,
      "atis": 2664,
      "Kimwa": 2665,
      "unnyi": 2666,
      "keche": 2667,
      "esen": 2668,
      "iro": 2669,
      "kogeskei": 2670,
      "kenya": 2671,
      "nganasani": 2672,
      "amitwokik": 2673,
      "namet": 2674,
      "meche": 2675,
      "komwaei": 2676,
      "kwanisyekyok": 2677,
      "tabandap": 2678,
      "atebweetap": 2679,
      "nereegekyuk": 2680,
      "Je": 2681,
      "Nyoo": 2682,
      "ibo": 2683,
      "pas": 2684,
      "sum": 2685,
      "ngom": 2686,
      "atin": 2687,
      "Kil": 2688,
      "angeet": 2689,
      "iryag": 2690,
      "oiywei": 2691,
      "weguk": 2692,
      "inyal": 2693,
      "kwes": 2694,
      "igon": 2695,
      "karishek": 2696,
      "uge": 2697,
      "nganasoogap": 2698,
      "kugo": 2699,
      "kolas": 2700,
      "pounateet": 2701,
      "togeennyi": 2702,
      "ilen": 2703,
      "mbaret": 2704,
      "koyan": 2705,
      "petei": 2706,
      "ititaat": 2707,
      "tumdo": 2708,
      "kabatishiet": 2709,
      "Kiptaiyandennyo": 2710,
      "pitoniin": 2711,
      "kaiyweisyet": 2712,
      "Ash": 2713,
      "aguur": 2714,
      "eete": 2715,
      "otee": 2716,
      "muita": 2717,
      "kep": 2718,
      "gong": 2719,
      "imbar": 2720,
      "kiba": 2721,
      "niguk": 2722,
      "kaberur": 2723,
      "konyit": 2724,
      "kagob": 2725,
      "Abba": 2726,
      "kobunj": 2727,
      "eiywot": 2728,
      "otwogindennyi": 2729,
      "kebendi": 2730,
      "Nebuka": 2731,
      "Nebukad": 2732,
      "Ba": 2733,
      "Oo": 2734,
      "imuchi": 2735,
      "mekat": 2736,
      "kochi": 2737,
      "agoonin": 2738,
      "olito": 2739,
      "yaityo": 2740,
      "korat": 2741,
      "moche": 2742,
      "aniel": 2743,
      "kigeer": 2744,
      "achek": 2745,
      "eliphuut": 2746,
      "yondennyi": 2747,
      "poisyonikyik": 2748,
      "kamuktaik": 2749,
      "arageneet": 2750,
      "Yai": 2751,
      "jok": 2752,
      "ony": 2753,
      "san": 2754,
      "zar": 2755,
      "konda": 2756,
      "kiib": 2757,
      "kiguur": 2758,
      "tam": 2759,
      "tanyu": 2760,
      "tala": 2761,
      "tol": 2762,
      "agu": 2763,
      "tur": 2764,
      "isyo": 2765,
      "ariir": 2766,
      "siet": 2767,
      "osyeguk": 2768,
      "mochei": 2769,
      "kosa": 2770,
      "kaina": 2771,
      "Amorik": 2772,
      "amiten": 2773,
      "metitap": 2774,
      "kurer": 2775,
      "saboondap": 2776,
      "chotok": 2777,
      "kakwa": 2778,
      "menot": 2779,
      "Daniel": 2780,
      "Iberuur": 2781,
      "Kaigai": 2782,
      "So": 2783,
      "of": 2784,
      "tel": 2785,
      "chab": 2786,
      "nekararan": 2787,
      "apan": 2788,
      "omnateet": 2789,
      "ebet": 2790,
      "igeere": 2791,
      "bendi": 2792,
      "panda": 2793,
      "Asisi": 2794,
      "kinyoor": 2795,
      "kurgeet": 2796,
      "malaikaiyat": 2797,
      "kayomiset": 2798,
      "akwotis": 2799,
      "gas": 2800,
      "iot": 2801,
      "kwek": 2802,
      "nge": 2803,
      "iige": 2804,
      "kemwa": 2805,
      "ome": 2806,
      "kerichek": 2807,
      "oniguk": 2808,
      "chepkond": 2809,
      "Ame": 2810,
      "mugulelwekwok": 2811,
      "muguleldap": 2812,
      "Has": 2813,
      "asir": 2814,
      "ger": 2815,
      "ywok": 2816,
      "koegu": 2817,
      "chego": 2818,
      "oonech": 2819,
      "iisi": 2820,
      "wochi": 2821,
      "wotap": 2822,
      "tigap": 2823,
      "yetune": 2824,
      "ratan": 2825,
      "iyani": 2826,
      "kaigai": 2827,
      "ishen": 2828,
      "osyekyik": 2829,
      "konyon": 2830,
      "yotiin": 2831,
      "kebeberwek": 2832,
      "kurgotik": 2833,
      "kamuung": 2834,
      "tiseiywot": 2835,
      "komonut": 2836,
      "kibananook": 2837,
      "Ram": 2838,
      "bon": 2839,
      "myachen": 2840,
      "koche": 2841,
      "kowo": 2842,
      "koiit": 2843,
      "chemi": 2844,
      "amang": 2845,
      "sira": 2846,
      "alale": 2847,
      "osye": 2848,
      "osotik": 2849,
      "kige": 2850,
      "kabot": 2851,
      "somani": 2852,
      "Kipendi": 2853,
      "Amwaiwok": 2854,
      "mugulelwek": 2855,
      "kapkir": 2856,
      "yanit": 2857,
      "garit": 2858,
      "kiwotetap": 2859,
      "shekelisyek": 2860,
      "lagook": 2861,
      "Ele": 2862,
      "Mami": 2863,
      "Sar": 2864,
      "Zer": 2865,
      "mei": 2866,
      "setab": 2867,
      "war": 2868,
      "weech": 2869,
      "koka": 2870,
      "koker": 2871,
      "cheetap": 2872,
      "iso": 2873,
      "lele": 2874,
      "Kitinye": 2875,
      "anyoo": 2876,
      "emennyi": 2877,
      "oksei": 2878,
      "komwei": 2879,
      "iboor": 2880,
      "kamennyu": 2881,
      "somogu": 2882,
      "isyetap": 2883,
      "punjin": 2884,
      "kosiirto": 2885,
      "nyalild": 2886,
      "mest": 2887,
      "kanyo": 2888,
      "chome": 2889,
      "yondonooto": 2890,
      "kenai": 2891,
      "malaikaisyek": 2892,
      "paornateet": 2893,
      "kiptainigap": 2894,
      "Kaldeik": 2895,
      "Mai": 2896,
      "Magat": 2897,
      "de": 2898,
      "geer": 2899,
      "kamuktai": 2900,
      "ogo": 2901,
      "pago": 2902,
      "yak": 2903,
      "kotogos": 2904,
      "nemie": 2905,
      "kimache": 2906,
      "cheu": 2907,
      "ore": 2908,
      "inatet": 2909,
      "uno": 2910,
      "mutyo": 2911,
      "ting": 2912,
      "yaun": 2913,
      "komye": 2914,
      "imiit": 2915,
      "kwer": 2916,
      "chumb": 2917,
      "wanj": 2918,
      "lakwa": 2919,
      "sukulit": 2920,
      "saboondang": 2921,
      "koyooto": 2922,
      "Elisha": 2923,
      "ortinwekyik": 2924,
      "Ingen": 2925,
      "tiseiywek": 2926,
      "mooriik": 2927,
      "kwekeny": 2928,
      "--": 2929,
      "Job": 2930,
      "No": 2931,
      "aang": 2932,
      "weegap": 2933,
      "zi": 2934,
      "ngale": 2935,
      "chemung": 2936,
      "asyo": 2937,
      "esar": 2938,
      "kiyooktoi": 2939,
      "koluul": 2940,
      "mbareet": 2941,
      "kebebaik": 2942,
      "aleekyuk": 2943,
      "otwogindennyu": 2944,
      "ilaya": 2945,
      "kemout": 2946,
      "fedhaisyek": 2947,
      "Katun": 2948,
      "ck": 2949,
      "mpiret": 2950,
      "yeni": 2951,
      "amas": 2952,
      "anon": 2953,
      "emwa": 2954,
      "omet": 2955,
      "leenjo": 2956,
      "anitu": 2957,
      "kamennyi": 2958,
      "ipu": 2959,
      "Kamuktaindennywa": 2960,
      "mbareenik": 2961,
      "kiptaiyat": 2962,
      "kiptaiyatap": 2963,
      "toondet": 2964,
      "nganasookyik": 2965,
      "kirwoogindet": 2966,
      "sigiryet": 2967,
      "rapinik": 2968,
      "kagoochinennyi": 2969,
      "siling": 2970,
      "Galilaya": 2971,
      ",’": 2972,
      "Ger": 2973,
      "Le": 2974,
      "Leb": 2975,
      "Mes": 2976,
      "Mitei": 2977,
      "Ur": 2978,
      "enen": 2979,
      "riik": 2980,
      "kiko": 2981,
      "ikei": 2982,
      "istoi": 2983,
      "kemi": 2984,
      "uru": 2985,
      "kaitit": 2986,
      "oonik": 2987,
      "tyondo": 2988,
      "lagokwak": 2989,
      "arawek": 2990,
      "kagoochinoigap": 2991,
      "lagokyik": 2992,
      "kwanisyekyik": 2993,
      "sainooto": 2994,
      "atuutikyuk": 2995,
      "kabatik": 2996,
      "melekto": 2997,
      "luule": 2998,
      "chepkug": 2999,
      "kurereetap": 3000,
      "Dan": 3001,
      "Nda": 3002,
      "Oriip": 3003,
      "iam": 3004,
      "pit": 3005,
      "sin": 3006,
      "koyiem": 3007,
      "kieei": 3008,
      "engung": 3009,
      "ela": 3010,
      "eekyi": 3011,
      "komet": 3012,
      "kogees": 3013,
      "wechooto": 3014,
      "kagiil": 3015,
      "kamen": 3016,
      "kabuu": 3017,
      "chaik": 3018,
      "ketes": 3019,
      "laany": 3020,
      "dad": 3021,
      "lugeetap": 3022,
      "wolu": 3023,
      "isyeguk": 3024,
      "eiywei": 3025,
      "kogeerei": 3026,
      "tarag": 3027,
      "unyng": 3028,
      "Shekem": 3029,
      "tyemutik": 3030,
      "kitom": 3031,
      "irinda": 3032,
      "notet": 3033,
      "Haji": 3034,
      "Hebron": 3035,
      "Lebanon": 3036,
      "bun": 3037,
      "sas": 3038,
      "ywech": 3039,
      "koal": 3040,
      "kimachei": 3041,
      "tot": 3042,
      "tosi": 3043,
      "oriip": 3044,
      "aishe": 3045,
      "inte": 3046,
      "keam": 3047,
      "komo": 3048,
      "karik": 3049,
      "koskol": 3050,
      "nigap": 3051,
      "otwogindetap": 3052,
      "utiguk": 3053,
      "olyoondonooto": 3054,
      "kanetindet": 3055,
      "rabinik": 3056,
      "It": 3057,
      "Kamukta": 3058,
      "kuk": 3059,
      "lang": 3060,
      "liil": 3061,
      "sub": 3062,
      "akat": 3063,
      "tuyet": 3064,
      "poisyegap": 3065,
      "ute": 3066,
      "korgor": 3067,
      "oleg": 3068,
      "weeriing": 3069,
      "keruutik": 3070,
      "kiyani": 3071,
      "kainet": 3072,
      "inegei": 3073,
      "kagong": 3074,
      "Abram": 3075,
      "koitetap": 3076,
      "ugut": 3077,
      "kinyor": 3078,
      "pergei": 3079,
      "eger": 3080,
      "kabwatutik": 3081,
      "nyoonjo": 3082,
      "temburyek": 3083,
      "paska": 3084,
      "kamenng": 3085,
      "Bal": 3086,
      "Mis": 3087,
      "iyet": 3088,
      "kunoto": 3089,
      "pee": 3090,
      "took": 3091,
      "koyaak": 3092,
      "etunotiin": 3093,
      "kitup": 3094,
      "tani": 3095,
      "taunet": 3096,
      "amutu": 3097,
      "alu": 3098,
      "olin": 3099,
      "iriir": 3100,
      "komnye": 3101,
      "unegei": 3102,
      "nennywa": 3103,
      "wanooto": 3104,
      "neran": 3105,
      "Abimelek": 3106,
      "bandek": 3107,
      "poisyennyi": 3108,
      "syegap": 3109,
      "aleekyik": 3110,
      "koleenjin": 3111,
      "Jehu": 3112,
      "nereegekyik": 3113,
      "Bethel": 3114,
      "kimnateetap": 3115,
      "aleechu": 3116,
      "kaboorunoik": 3117,
      "nyasutik": 3118,
      "taagunotiin": 3119,
      "okweegei": 3120,
      "toloi": 3121,
      "chepkondok": 3122,
      "chumbek": 3123,
      "Awendi": 3124,
      "Angen": 3125,
      "Inye": 3126,
      "fr": 3127,
      "kamuk": 3128,
      "luul": 3129,
      "peel": 3130,
      "sit": 3131,
      "wir": 3132,
      "ekai": 3133,
      "tuti": 3134,
      "kobotik": 3135,
      "bok": 3136,
      "oste": 3137,
      "ola": 3138,
      "wegu": 3139,
      "wechi": 3140,
      "laitorani": 3141,
      "kosabei": 3142,
      "ogis": 3143,
      "kaimutik": 3144,
      "tengektanyi": 3145,
      "boisien": 3146,
      "katyag": 3147,
      "Mwachi": 3148,
      "magatyat": 3149,
      "testai": 3150,
      "chomei": 3151,
      "iyweis": 3152,
      "kuting": 3153,
      "kimnateennyi": 3154,
      "puunikyuk": 3155,
      "kobutyi": 3156,
      "sinago": 3157,
      "Iny": 3158,
      "Reh": 3159,
      "icham": 3160,
      "icho": 3161,
      "ris": 3162,
      "koee": 3163,
      "nga": 3164,
      "chuu": 3165,
      "chepo": 3166,
      "pogei": 3167,
      "mau": 3168,
      "otinik": 3169,
      "yes": 3170,
      "emennywa": 3171,
      "eenigap": 3172,
      "komii": 3173,
      "oip": 3174,
      "korom": 3175,
      "tuguukwak": 3176,
      "ketur": 3177,
      "kolal": 3178,
      "nyigiisi": 3179,
      "wenyu": 3180,
      "kiptaiyandennyi": 3181,
      "kenam": 3182,
      "kegeer": 3183,
      "aarek": 3184,
      "ayook": 3185,
      "koroomnateet": 3186,
      "kererit": 3187,
      "sugunwet": 3188,
      "aibait": 3189,
      "kabwaatet": 3190,
      "kobotisiet": 3191,
      "Kiit": 3192,
      "Mito": 3193,
      "Nam": 3194,
      "Tinye": 3195,
      "kus": 3196,
      "kub": 3197,
      "rang": 3198,
      "yosyek": 3199,
      "kotuiyo": 3200,
      "ngwek": 3201,
      "kia": 3202,
      "enok": 3203,
      "itiik": 3204,
      "kobagaakta": 3205,
      "kebo": 3206,
      "nyiny": 3207,
      "inyoo": 3208,
      "kiplug": 3209,
      "kagor": 3210,
      "kibunei": 3211,
      "kaimuti": 3212,
      "atuutigap": 3213,
      "parei": 3214,
      "Nganda": 3215,
      "biikab": 3216,
      "chepkichut": 3217,
      "Abner": 3218,
      "keld": 3219,
      "koonnyu": 3220,
      "meset": 3221,
      "wendote": 3222,
      "kobogoryot": 3223,
      "teptoi": 3224,
      "kamanuutyet": 3225,
      "kumyat": 3226,
      "chalwok": 3227,
      "Katunisyet": 3228,
      "taragonik": 3229,
      "Esta": 3230,
      "Kany": 3231,
      "Laban": 3232,
      "kama": 3233,
      "oyae": 3234,
      "pend": 3235,
      "kotil": 3236,
      "komuch": 3237,
      "kiyo": 3238,
      "tag": 3239,
      "inam": 3240,
      "otyot": 3241,
      "erter": 3242,
      "alia": 3243,
      "keleenji": 3244,
      "enyei": 3245,
      "ebul": 3246,
      "kogi": 3247,
      "kigonor": 3248,
      "nyone": 3249,
      "iisyet": 3250,
      "mbareetap": 3251,
      "oomen": 3252,
      "kelchin": 3253,
      "ngalal": 3254,
      "Shim": 3255,
      "puuniguk": 3256,
      "utaatiin": 3257,
      "noe": 3258,
      "gararan": 3259,
      "lembechek": 3260,
      "kemboi": 3261,
      "mogondos": 3262,
      "Eleazar": 3263,
      "Imu": 3264,
      "Med": 3265,
      "Ngu": 3266,
      "Set": 3267,
      "litit": 3268,
      "mob": 3269,
      "mwei": 3270,
      "osiek": 3271,
      "otupche": 3272,
      "saru": 3273,
      "toor": 3274,
      "koito": 3275,
      "kile": 3276,
      "kitinye": 3277,
      "taa": 3278,
      "taap": 3279,
      "oog": 3280,
      "tom": 3281,
      "anam": 3282,
      "ager": 3283,
      "tuni": 3284,
      "arus": 3285,
      "onoto": 3286,
      "chich": 3287,
      "utyi": 3288,
      "omani": 3289,
      "korik": 3290,
      "obei": 3291,
      "kosup": 3292,
      "keit": 3293,
      "lelut": 3294,
      "parbar": 3295,
      "chaam": 3296,
      "komache": 3297,
      "melel": 3298,
      "akopo": 3299,
      "aikai": 3300,
      "toroornatetap": 3301,
      "logoegap": 3302,
      "kwonyik": 3303,
      "atebweet": 3304,
      "saishek": 3305,
      "karwotito": 3306,
      "Jehovah": 3307,
      "korgoreet": 3308,
      "Ami": 3309,
      "Amwa": 3310,
      "Mam": 3311,
      "Much": 3312,
      "buk": 3313,
      "kochang": 3314,
      "etet": 3315,
      "nemu": 3316,
      "kigu": 3317,
      "kiwa": 3318,
      "nyoot": 3319,
      "iim": 3320,
      "iiny": 3321,
      "ageng": 3322,
      "atak": 3323,
      "atik": 3324,
      "atyi": 3325,
      "itwogik": 3326,
      "eren": 3327,
      "koberuur": 3328,
      "chine": 3329,
      "oindet": 3330,
      "kote": 3331,
      "kween": 3332,
      "Ish": 3333,
      "kibendi": 3334,
      "bed": 3335,
      "aalseet": 3336,
      "naei": 3337,
      "pounatetap": 3338,
      "baibai": 3339,
      "Lawi": 3340,
      "kirwoogik": 3341,
      "oldanyi": 3342,
      "kamuktaet": 3343,
      "serkalit": 3344,
      "njireenik": 3345,
      "muitaet": 3346,
      "Iberuurot": 3347,
      "Kamuktaet": 3348,
      "Bomet": 3349,
      "Hes": 3350,
      "Mii": 3351,
      "Myee": 3352,
      "mee": 3353,
      "mwo": 3354,
      "song": 3355,
      "nemi": 3356,
      "kiwanj": 3357,
      "nyit": 3358,
      "agoonok": 3359,
      "tune": 3360,
      "oram": 3361,
      "mael": 3362,
      "itoon": 3363,
      "angwan": 3364,
      "ilaachi": 3365,
      "chamji": 3366,
      "itogu": 3367,
      "telel": 3368,
      "siri": 3369,
      "siriindet": 3370,
      "osyekwak": 3371,
      "keter": 3372,
      "istoe": 3373,
      "epchi": 3374,
      "kanisa": 3375,
      "togooch": 3376,
      "toreti": 3377,
      "koonin": 3378,
      "tereet": 3379,
      "amwachi": 3380,
      "Midi": 3381,
      "mangen": 3382,
      "kenet": 3383,
      "chobei": 3384,
      "kitabut": 3385,
      "mogornatosyek": 3386,
      "Kanaanik": 3387,
      "abwatii": 3388,
      "tuiyosyek": 3389,
      "atisan": 3390,
      "Balaam": 3391,
      "Ai": 3392,
      "Bik": 3393,
      "Damas": 3394,
      "En": 3395,
      "Miitei": 3396,
      "Mord": 3397,
      "iwendi": 3398,
      "mab": 3399,
      "ond": 3400,
      "ondo": 3401,
      "pagaakta": 3402,
      "siis": 3403,
      "wag": 3404,
      "ngamun": 3405,
      "oron": 3406,
      "ateng": 3407,
      "mach": 3408,
      "iterteer": 3409,
      "simet": 3410,
      "yetab": 3411,
      "yetunet": 3412,
      "kawek": 3413,
      "oiguk": 3414,
      "igoono": 3415,
      "nitok": 3416,
      "ogeere": 3417,
      "ipchi": 3418,
      "istoegei": 3419,
      "kagoit": 3420,
      "imandang": 3421,
      "inyegei": 3422,
      "kanis": 3423,
      "artaat": 3424,
      "bikap": 3425,
      "poortanyi": 3426,
      "puunyoot": 3427,
      "puunikwak": 3428,
      "koboiboi": 3429,
      "kimuratan": 3430,
      "seset": 3431,
      "elyepta": 3432,
      "kayanet": 3433,
      "tiemutik": 3434,
      "leelach": 3435,
      "tiibiigap": 3436,
      "kagiiletapkei": 3437,
      "Mordekai": 3438,
      "Amo": 3439,
      "Josi": 3440,
      "Kanet": 3441,
      "Ty": 3442,
      "hekal": 3443,
      "oit": 3444,
      "pes": 3445,
      "ror": 3446,
      "toot": 3447,
      "uchi": 3448,
      "woon": 3449,
      "yook": 3450,
      "kool": 3451,
      "nezar": 3452,
      "toben": 3453,
      "eku": 3454,
      "oroor": 3455,
      "aindet": 3456,
      "isei": 3457,
      "Kimi": 3458,
      "otyondennyi": 3459,
      "kechop": 3460,
      "tigit": 3461,
      "ilg": 3462,
      "ngony": 3463,
      "laitornatennyi": 3464,
      "kosoman": 3465,
      "kibeel": 3466,
      "isietab": 3467,
      "kiywei": 3468,
      "kamenyu": 3469,
      "siriik": 3470,
      "Amen": 3471,
      "natos": 3472,
      "peetuusyekyik": 3473,
      "koono": 3474,
      "pire": 3475,
      "keetitap": 3476,
      "matiny": 3477,
      "tereenik": 3478,
      "kokweng": 3479,
      "Weeriin": 3480,
      "nyigiis": 3481,
      "ainoosyek": 3482,
      "Kabuusetap": 3483,
      "oorchigei": 3484,
      "yondeng": 3485,
      "wookyin": 3486,
      "Tomo": 3487,
      "konyekyuk": 3488,
      "kanamonikwak": 3489,
      "emaitap": 3490,
      "aleechooto": 3491,
      "tugatu": 3492,
      "susweek": 3493,
      "rireenennyi": 3494,
      "kampunit": 3495,
      "Nebukadnezar": 3496,
      "Noah": 3497,
      "kiplugotinik": 3498,
      "Damasko": 3499,
      "Tyro": 3500,
      "Uz": 3501,
      "bul": 3502,
      "eiik": 3503,
      "yuu": 3504,
      "ywet": 3505,
      "yennyu": 3506,
      "kokwo": 3507,
      "kokeny": 3508,
      "kolaitoran": 3509,
      "neu": 3510,
      "amar": 3511,
      "ates": 3512,
      "Kita": 3513,
      "kobiitu": 3514,
      "yachin": 3515,
      "iriip": 3516,
      "olegi": 3517,
      "chameet": 3518,
      "anindet": 3519,
      "kona": 3520,
      "jino": 3521,
      "isyechi": 3522,
      "kurget": 3523,
      "walet": 3524,
      "Asoomin": 3525,
      "ageere": 3526,
      "choortagei": 3527,
      "itoondap": 3528,
      "tambees": 3529,
      "kaberuret": 3530,
      "Bash": 3531,
      "Hero": 3532,
      "Il": 3533,
      "Kaa": 3534,
      "Mik": 3535,
      "Mag": 3536,
      "Zed": 3537,
      "ichu": 3538,
      "iyachi": 3539,
      "onyooru": 3540,
      "twai": 3541,
      "utu": 3542,
      "wennyu": 3543,
      "kichop": 3544,
      "siaset": 3545,
      "ooreennyi": 3546,
      "keguure": 3547,
      "komnyei": 3548,
      "koterteer": 3549,
      "kipchab": 3550,
      "karnet": 3551,
      "mokor": 3552,
      "kagas": 3553,
      "kibor": 3554,
      "kaberber": 3555,
      "ubei": 3556,
      "Mache": 3557,
      "kagome": 3558,
      "magaat": 3559,
      "iibei": 3560,
      "poipoi": 3561,
      "koamis": 3562,
      "tupchosyekwak": 3563,
      "kiboitinik": 3564,
      "iyookwo": 3565,
      "konyeguk": 3566,
      "Nyol": 3567,
      "Josiah": 3568,
      "Bashan": 3569,
      "Zedekiah": 3570,
      "),": 3571,
      "Iche": 3572,
      "Kos": 3573,
      "Kaikai": 3574,
      "akoba": 3575,
      "eut": 3576,
      "pus": 3577,
      "kondo": 3578,
      "ngan": 3579,
      "eka": 3580,
      "pon": 3581,
      "woch": 3582,
      "sie": 3583,
      "asis": 3584,
      "tig": 3585,
      "iren": 3586,
      "Isaiah": 3587,
      "iger": 3588,
      "oba": 3589,
      "karaat": 3590,
      "konget": 3591,
      "tisabu": 3592,
      "weekyigei": 3593,
      "sabet": 3594,
      "kagomwa": 3595,
      "Jeriko": 3596,
      "kobois": 3597,
      "kalil": 3598,
      "togeng": 3599,
      "utie": 3600,
      "tononso": 3601,
      "nyalilwogik": 3602,
      "poisyonikwak": 3603,
      "elelji": 3604,
      "tyenwogik": 3605,
      "atepto": 3606,
      "itabaanatiin": 3607,
      "kecheik": 3608,
      "mesteet": 3609,
      "luulenik": 3610,
      "Miising": 3611,
      "Kam": 3612,
      "fu": 3613,
      "meei": 3614,
      "pche": 3615,
      "pang": 3616,
      "sek": 3617,
      "suu": 3618,
      "ugei": 3619,
      "komuchi": 3620,
      "neya": 3621,
      "kimur": 3622,
      "kikwong": 3623,
      "taet": 3624,
      "tayat": 3625,
      "Kibet": 3626,
      "maa": 3627,
      "chikil": 3628,
      "komuuchi": 3629,
      "inyooru": 3630,
      "ingot": 3631,
      "igimit": 3632,
      "lelach": 3633,
      "kase": 3634,
      "lagoguk": 3635,
      "chinigei": 3636,
      "poisyei": 3637,
      "toretet": 3638,
      "keljin": 3639,
      "itun": 3640,
      "keswek": 3641,
      "adok": 3642,
      "rutoi": 3643,
      "kotesak": 3644,
      "tumd": 3645,
      "makat": 3646,
      "kandoigap": 3647,
      "jasiri": 3648,
      "omwae": 3649,
      "Kararan": 3650,
      "ide": 3651,
      "Chomnyet": 3652,
      "chepyosok": 3653,
      "wikit": 3654,
      "tebeesindo": 3655,
      "karaatya": 3656,
      ":“": 3657,
      "Pil": 3658,
      "Tu": 3659,
      "Zadok": 3660,
      "moo": 3661,
      "rwo": 3662,
      "see": 3663,
      "tin": 3664,
      "kilo": 3665,
      "ndennyu": 3666,
      "oro": 3667,
      "unetab": 3668,
      "itee": 3669,
      "kobwon": 3670,
      "Toroornatet": 3671,
      "yoto": 3672,
      "omei": 3673,
      "eser": 3674,
      "uruk": 3675,
      "ingweny": 3676,
      "obon": 3677,
      "nateng": 3678,
      "unennyi": 3679,
      "itosi": 3680,
      "Koki": 3681,
      "jinin": 3682,
      "murwoon": 3683,
      "kooen": 3684,
      "wooni": 3685,
      "kwandanyu": 3686,
      "iisyegap": 3687,
      "yotin": 3688,
      "mageetap": 3689,
      "kelyek": 3690,
      "pireet": 3691,
      "otiguk": 3692,
      "tuiyetap": 3693,
      "haz": 3694,
      "Sid": 3695,
      "olyoondeng": 3696,
      "keger": 3697,
      "oldang": 3698,
      "seremu": 3699,
      "iyumgei": 3700,
      "Chomye": 3701,
      "Haman": 3702,
      "agetugul": 3703,
      "iryageet": 3704,
      "Nguno": 3705,
      "Bet": 3706,
      "Sir": 3707,
      "Tim": 3708,
      "goochi": 3709,
      "sak": 3710,
      "wel": 3711,
      "kondoe": 3712,
      "ngecher": 3713,
      "etoi": 3714,
      "negararan": 3715,
      "kiiy": 3716,
      "kina": 3717,
      "eegu": 3718,
      "ainik": 3719,
      "Kijasiri": 3720,
      "unooto": 3721,
      "aboor": 3722,
      "abir": 3723,
      "otigap": 3724,
      "sipi": 3725,
      "aleen": 3726,
      "wach": 3727,
      "wany": 3728,
      "muku": 3729,
      "mil": 3730,
      "mita": 3731,
      "emenyo": 3732,
      "korook": 3733,
      "kogimit": 3734,
      "wechin": 3735,
      "inyu": 3736,
      "kotebyei": 3737,
      "chametapkei": 3738,
      "kosiis": 3739,
      "koname": 3740,
      "amaat": 3741,
      "ogoochi": 3742,
      "poroindo": 3743,
      "komachei": 3744,
      "Amei": 3745,
      "mugulelwegap": 3746,
      "betush": 3747,
      "seituni": 3748,
      "eunekwok": 3749,
      "riiree": 3750,
      "koipchi": 3751,
      "kigom": 3752,
      "kitabuutap": 3753,
      "kotoreti": 3754,
      "keriing": 3755,
      "piriireen": 3756,
      "keturek": 3757,
      "Setani": 3758,
      "bukui": 3759,
      "poipoiyet": 3760,
      "Az": 3761,
      "Ken": 3762,
      "Maria": 3763,
      "Rael": 3764,
      "itoroor": 3765,
      "meek": 3766,
      "rup": 3767,
      "kiam": 3768,
      "aker": 3769,
      "leh": 3770,
      "inooto": 3771,
      "aleech": 3772,
      "was": 3773,
      "bokol": 3774,
      "kaaror": 3775,
      "esyo": 3776,
      "komuuch": 3777,
      "kogirinda": 3778,
      "ibir": 3779,
      "alewen": 3780,
      "kibanani": 3781,
      "atut": 3782,
      "atuutiguk": 3783,
      "chepkamet": 3784,
      "Jesu": 3785,
      "Kamuktaindennyi": 3786,
      "kelek": 3787,
      "ugui": 3788,
      "teebee": 3789,
      "katook": 3790,
      "korotwek": 3791,
      "urereni": 3792,
      "kanamwet": 3793,
      "koipu": 3794,
      "tyendo": 3795,
      "eunekyuk": 3796,
      "tuloonoogap": 3797,
      "porotennywa": 3798,
      "Ibu": 3799,
      "wendoti": 3800,
      "kogergeit": 3801,
      "koroomen": 3802,
      "muus": 3803,
      "kalasunet": 3804,
      "serkali": 3805,
      "chuchuch": 3806,
      "Rehoboam": 3807,
      "Ep": 3808,
      "Hor": 3809,
      "Kain": 3810,
      "Komwa": 3811,
      "Mal": 3812,
      "Rab": 3813,
      "Riip": 3814,
      "Se": 3815,
      "Tis": 3816,
      "Wendi": 3817,
      "iming": 3818,
      "ocheeng": 3819,
      "twa": 3820,
      "twegu": 3821,
      "koeet": 3822,
      "ngwai": 3823,
      "ngering": 3824,
      "chap": 3825,
      "nyer": 3826,
      "nyiit": 3827,
      "tuch": 3828,
      "tuga": 3829,
      "isit": 3830,
      "abus": 3831,
      "otwok": 3832,
      "kobee": 3833,
      "kobend": 3834,
      "kesir": 3835,
      "geitu": 3836,
      "oleenji": 3837,
      "komiten": 3838,
      "ibwaati": 3839,
      "wenyi": 3840,
      "usyegap": 3841,
      "laitoryand": 3842,
      "kagot": 3843,
      "parune": 3844,
      "patai": 3845,
      "amitwogigap": 3846,
      "myeeindap": 3847,
      "uiye": 3848,
      "aneege": 3849,
      "logoi": 3850,
      "matya": 3851,
      "ngoroikwak": 3852,
      "teset": 3853,
      "chebyos": 3854,
      "aleeguk": 3855,
      "lumeiy": 3856,
      "iyookyi": 3857,
      "Hadad": 3858,
      "suswek": 3859,
      "Obwa": 3860,
      "tienwokik": 3861,
      "Jehoiada": 3862,
      "cheego": 3863,
      "wareng": 3864,
      "koskoling": 3865,
      "ebulun": 3866,
      "aleechuuto": 3867,
      "kibananiat": 3868,
      "Nai": 3869,
      "Naph": 3870,
      "Th": 3871,
      "Uri": 3872,
      "achop": 3873,
      "bel": 3874,
      "bir": 3875,
      "oma": 3876,
      "usiek": 3877,
      "yonooto": 3878,
      "kounoto": 3879,
      "kinyo": 3880,
      "kiker": 3881,
      "kiwai": 3882,
      "nyek": 3883,
      "agaa": 3884,
      "uuny": 3885,
      "keguur": 3886,
      "angook": 3887,
      "oleen": 3888,
      "koro": 3889,
      "chamat": 3890,
      "wogiguk": 3891,
      "weeriiguk": 3892,
      "kiboor": 3893,
      "ishiek": 3894,
      "kiruu": 3895,
      "kimii": 3896,
      "Chii": 3897,
      "inemu": 3898,
      "keegu": 3899,
      "ketei": 3900,
      "kaplaitoryat": 3901,
      "kwandanywa": 3902,
      "pich": 3903,
      "saet": 3904,
      "koonok": 3905,
      "perur": 3906,
      "weege": 3907,
      "anyinyi": 3908,
      "kamuiset": 3909,
      "irimoik": 3910,
      "kirwoogetap": 3911,
      "emaisyek": 3912,
      "kotononso": 3913,
      "poolik": 3914,
      "iyasyechi": 3915,
      "Olasu": 3916,
      "pichiindo": 3917,
      "tolochik": 3918,
      "laanyei": 3919,
      "Inyee": 3920,
      "Herod": 3921,
      "Naphtali": 3922,
      "Gide": 3923,
      "Kata": 3924,
      "Mom": 3925,
      "aton": 3926,
      "bait": 3927,
      "ene": 3928,
      "mem": 3929,
      "reb": 3930,
      "reel": 3931,
      "ue": 3932,
      "ywek": 3933,
      "kopo": 3934,
      "chak": 3935,
      "nelel": 3936,
      "tanet": 3937,
      "iiguk": 3938,
      "among": 3939,
      "agar": 3940,
      "arik": 3941,
      "Kinyor": 3942,
      "tugukab": 3943,
      "olol": 3944,
      "komochei": 3945,
      "kogoochin": 3946,
      "natennyu": 3947,
      "kereer": 3948,
      "ishei": 3949,
      "kirg": 3950,
      "Koh": 3951,
      "sirto": 3952,
      "yinin": 3953,
      "isyechooto": 3954,
      "euneguk": 3955,
      "sukulisiek": 3956,
      "kwanisyeguk": 3957,
      "poibo": 3958,
      "ephod": 3959,
      "atosyek": 3960,
      "mongen": 3961,
      "chomyet": 3962,
      "iyoteng": 3963,
      "iyoteetap": 3964,
      "atuutikyik": 3965,
      "sisit": 3966,
      "imutu": 3967,
      "rireenetapkei": 3968,
      "kotorook": 3969,
      "chamanennyu": 3970,
      "Ingotep": 3971,
      "Joash": 3972,
      "kwesta": 3973,
      "telun": 3974,
      "chepkugoni": 3975,
      "Pilato": 3976,
      ",‘": 3977,
      "Tes": 3978,
      "Zebulun": 3979,
      "beet": 3980,
      "omang": 3981,
      "pegu": 3982,
      "reger": 3983,
      "usi": 3984,
      "utok": 3985,
      "kois": 3986,
      "kiyiem": 3987,
      "ootaat": 3988,
      "ndeng": 3989,
      "ike": 3990,
      "aineetap": 3991,
      "ndetap": 3992,
      "Kibar": 3993,
      "mal": 3994,
      "oth": 3995,
      "otei": 3996,
      "siki": 3997,
      "kobookyi": 3998,
      "asar": 3999,
      "asabe": 4000,
      "chig": 4001,
      "anywa": 4002,
      "kolewen": 4003,
      "kotet": 4004,
      "kibe": 4005,
      "chup": 4006,
      "waiwech": 4007,
      "siret": 4008,
      "sirei": 4009,
      "utikyik": 4010,
      "ketu": 4011,
      "kagoba": 4012,
      "poisyoniguk": 4013,
      "rop": 4014,
      "kinye": 4015,
      "tesetai": 4016,
      "amdoi": 4017,
      "echerennyi": 4018,
      "riirchi": 4019,
      "kisirchi": 4020,
      "kegas": 4021,
      "koroitab": 4022,
      "chebooto": 4023,
      "konyekyik": 4024,
      "kamangut": 4025,
      "ibutyi": 4026,
      "katunisiet": 4027,
      "kutusweekwak": 4028,
      "nereegegap": 4029,
      "akwotisyek": 4030,
      "mogondosaik": 4031,
      "karwotitoet": 4032,
      "Ishmael": 4033,
      "Azariah": 4034,
      "Achamin": 4035,
      "Jeb": 4036,
      "Keri": 4037,
      "Mur": 4038,
      "bat": 4039,
      "jech": 4040,
      "kowong": 4041,
      "negit": 4042,
      "ookwak": 4043,
      "eeny": 4044,
      "aish": 4045,
      "abor": 4046,
      "abun": 4047,
      "otiin": 4048,
      "sichei": 4049,
      "onu": 4050,
      "koboorchi": 4051,
      "uten": 4052,
      "komeng": 4053,
      "kotook": 4054,
      "laitoriat": 4055,
      "kosoom": 4056,
      "kenyor": 4057,
      "kait": 4058,
      "kaita": 4059,
      "inem": 4060,
      "komasta": 4061,
      "daet": 4062,
      "tengektap": 4063,
      "Jesse": 4064,
      "aransa": 4065,
      "utyetap": 4066,
      "yuto": 4067,
      "ureriet": 4068,
      "aisur": 4069,
      "maoten": 4070,
      "Ingol": 4071,
      "kutitab": 4072,
      "rubei": 4073,
      "aarwetap": 4074,
      "kooindap": 4075,
      "paraisiit": 4076,
      "konetik": 4077,
      "taagu": 4078,
      "itabaanat": 4079,
      "teweernateet": 4080,
      "Kalya": 4081,
      "kainaikwak": 4082,
      "Sodom": 4083,
      "kiwanjet": 4084,
      "buluu": 4085,
      "lehem": 4086,
      "kiruugik": 4087,
      "Ahaz": 4088,
      "Beer": 4089,
      "Zek": 4090,
      "aet": 4091,
      "but": 4092,
      "hon": 4093,
      "kun": 4094,
      "ktoi": 4095,
      "kuni": 4096,
      "weni": 4097,
      "etuu": 4098,
      "nenyon": 4099,
      "kinet": 4100,
      "oos": 4101,
      "tongo": 4102,
      "isot": 4103,
      "otes": 4104,
      "era": 4105,
      "sio": 4106,
      "onet": 4107,
      "kobate": 4108,
      "anyor": 4109,
      "tiguk": 4110,
      "tiong": 4111,
      "eennywa": 4112,
      "kayai": 4113,
      "toror": 4114,
      "ibinda": 4115,
      "welel": 4116,
      "ahas": 4117,
      "kotyach": 4118,
      "iges": 4119,
      "igeesu": 4120,
      "karar": 4121,
      "chamyeng": 4122,
      "peetuuni": 4123,
      "Amune": 4124,
      "weekyi": 4125,
      "weeksei": 4126,
      "oger": 4127,
      "kabotik": 4128,
      "ipan": 4129,
      "Kogo": 4130,
      "poro": 4131,
      "nganaso": 4132,
      "Amer": 4133,
      "soet": 4134,
      "kalya": 4135,
      "kinga": 4136,
      "Arab": 4137,
      "walutik": 4138,
      "siekab": 4139,
      "poortanyu": 4140,
      "matinyei": 4141,
      "terchin": 4142,
      "tengektonywa": 4143,
      "chikei": 4144,
      "kotesei": 4145,
      "muusto": 4146,
      "lalei": 4147,
      "kabarasta": 4148,
      "osyechu": 4149,
      "bukuitap": 4150,
      "Zekariah": 4151,
      "Ayae": 4152,
      "Biik": 4153,
      "Jab": 4154,
      "Okw": 4155,
      "Tar": 4156,
      "faransa": 4157,
      "motinye": 4158,
      "oe": 4159,
      "puku": 4160,
      "pista": 4161,
      "soo": 4162,
      "uel": 4163,
      "uchu": 4164,
      "koii": 4165,
      "koeech": 4166,
      "konem": 4167,
      "ngiro": 4168,
      "kiso": 4169,
      "akere": 4170,
      "ndennyi": 4171,
      "togo": 4172,
      "amisyei": 4173,
      "tuget": 4174,
      "aishek": 4175,
      "sikik": 4176,
      "aldo": 4177,
      "keme": 4178,
      "oibo": 4179,
      "ratu": 4180,
      "alen": 4181,
      "keip": 4182,
      "keisto": 4183,
      "kibuga": 4184,
      "konin": 4185,
      "kabwat": 4186,
      "baru": 4187,
      "lagokwok": 4188,
      "tamanu": 4189,
      "mete": 4190,
      "iisyei": 4191,
      "mageet": 4192,
      "baigei": 4193,
      "tuguuguk": 4194,
      "mwaiwo": 4195,
      "kamuget": 4196,
      "korotiikyik": 4197,
      "ormariichok": 4198,
      "timit": 4199,
      "aldos": 4200,
      "nyamdutyet": 4201,
      "perberyo": 4202,
      "sikyi": 4203,
      "saboonwekwak": 4204,
      "chengering": 4205,
      "ateptap": 4206,
      "ichuu": 4207,
      "rabisiek": 4208,
      "Gibea": 4209,
      "Mary": 4210,
      "togoochikwak": 4211,
      "Uzzi": 4212,
      "Ca": 4213,
      "Ged": 4214,
      "Koto": 4215,
      "Meiywei": 4216,
      "gitu": 4217,
      "senge": 4218,
      "kouu": 4219,
      "kowol": 4220,
      "chuun": 4221,
      "akweet": 4222,
      "taisyek": 4223,
      "chel": 4224,
      "chemo": 4225,
      "chebaigei": 4226,
      "iing": 4227,
      "tou": 4228,
      "anso": 4229,
      "agis": 4230,
      "tuug": 4231,
      "aitu": 4232,
      "gut": 4233,
      "Kipo": 4234,
      "abwaat": 4235,
      "ityin": 4236,
      "sigu": 4237,
      "wale": 4238,
      "keo": 4239,
      "emak": 4240,
      "olik": 4241,
      "chiin": 4242,
      "wekyok": 4243,
      "kwei": 4244,
      "chamait": 4245,
      "kongen": 4246,
      "ipchin": 4247,
      "kitet": 4248,
      "wooch": 4249,
      "alaalwo": 4250,
      "chorwenyu": 4251,
      "tokyi": 4252,
      "asigo": 4253,
      "robta": 4254,
      "kamug": 4255,
      "siirtoi": 4256,
      "maiyek": 4257,
      "kotestai": 4258,
      "Philisti": 4259,
      "kainaigap": 4260,
      "garisiek": 4261,
      "Ibwaat": 4262,
      "kimnateng": 4263,
      "riips": 4264,
      "Poisy": 4265,
      "ngoryennyi": 4266,
      "kaneetisyet": 4267,
      "aechin": 4268,
      "kwondonyi": 4269,
      "chubisyet": 4270,
      "kolaany": 4271,
      "kayasyo": 4272,
      "kobogorisyek": 4273,
      "Asher": 4274,
      "siraatiin": 4275,
      "ngalechoto": 4276,
      "esarea": 4277,
      "kigonoree": 4278,
      "Gideon": 4279,
      "Kericho": 4280,
      "aisuruut": 4281,
      "Caesarea": 4282,
      "Balak": 4283,
      "Imuchi": 4284,
      "Japan": 4285,
      "Lago": 4286,
      "Magaat": 4287,
      "Nab": 4288,
      "Yet": 4289,
      "bei": 4290,
      "ichame": 4291,
      "mseituni": 4292,
      "rus": 4293,
      "samis": 4294,
      "wis": 4295,
      "kowek": 4296,
      "koni": 4297,
      "konereech": 4298,
      "kowiirchi": 4299,
      "kisip": 4300,
      "nyuk": 4301,
      "aginye": 4302,
      "agase": 4303,
      "tuuk": 4304,
      "Kimutai": 4305,
      "onoor": 4306,
      "komeche": 4307,
      "urwet": 4308,
      "kotoor": 4309,
      "kotyanit": 4310,
      "kipsomani": 4311,
      "Issak": 4312,
      "obwaat": 4313,
      "karan": 4314,
      "chametab": 4315,
      "kagi": 4316,
      "kerich": 4317,
      "kergong": 4318,
      "ogoste": 4319,
      "indoni": 4320,
      "Amitwogik": 4321,
      "koonyek": 4322,
      "imandanyi": 4323,
      "sheba": 4324,
      "Judea": 4325,
      "nyalu": 4326,
      "netai": 4327,
      "yandos": 4328,
      "boror": 4329,
      "Kaneet": 4330,
      "konamgei": 4331,
      "Weeriit": 4332,
      "iyoteet": 4333,
      "poroteetap": 4334,
      "aldoi": 4335,
      "kayomisennyu": 4336,
      "paragunnyi": 4337,
      "Samson": 4338,
      "saaei": 4339,
      "tangoi": 4340,
      "arorutyetap": 4341,
      "kochoortagei": 4342,
      "somanee": 4343,
      "tambul": 4344,
      "nereegeguk": 4345,
      "punyo": 4346,
      "nyiganateet": 4347,
      "menoteet": 4348,
      "pagoinik": 4349,
      "Shimei": 4350,
      "nganuuk": 4351,
      "kemeut": 4352,
      "kayasyoet": 4353,
      "Issakar": 4354,
      "Age": 4355,
      "Itinye": 4356,
      "Kang": 4357,
      "Tebee": 4358,
      "aya": 4359,
      "bas": 4360,
      "bil": 4361,
      "lab": 4362,
      "ota": 4363,
      "omache": 4364,
      "rii": 4365,
      "tr": 4366,
      "kotiny": 4367,
      "koamei": 4368,
      "kolaitorani": 4369,
      "etkong": 4370,
      "kio": 4371,
      "kika": 4372,
      "kiyaak": 4373,
      "kilewen": 4374,
      "taunetap": 4375,
      "chemengech": 4376,
      "ootech": 4377,
      "nden": 4378,
      "engwai": 4379,
      "init": 4380,
      "eetyee": 4381,
      "waach": 4382,
      "kechob": 4383,
      "kale": 4384,
      "olu": 4385,
      "imegitu": 4386,
      "imuung": 4387,
      "koruiyo": 4388,
      "koges": 4389,
      "leenjin": 4390,
      "kweenik": 4391,
      "inget": 4392,
      "eetapkei": 4393,
      "kericho": 4394,
      "kirat": 4395,
      "komas": 4396,
      "yinet": 4397,
      "atar": 4398,
      "keldo": 4399,
      "kesisyet": 4400,
      "adab": 4401,
      "tononjin": 4402,
      "borwek": 4403,
      "kotaach": 4404,
      "tupchennyu": 4405,
      "aiste": 4406,
      "olyoondennyi": 4407,
      "kaptisisy": 4408,
      "logoekyik": 4409,
      "iyong": 4410,
      "puunikyik": 4411,
      "chechiik": 4412,
      "tekso": 4413,
      "kolanda": 4414,
      "kiwoteet": 4415,
      "mosog": 4416,
      "mestowot": 4417,
      "taabeet": 4418,
      "Mispa": 4419,
      "iyeto": 4420,
      "etuunyik": 4421,
      "Em": 4422,
      "Kei": 4423,
      "Nathan": 4424,
      "Tuten": 4425,
      "baba": 4426,
      "iee": 4427,
      "ichop": 4428,
      "lus": 4429,
      "onen": 4430,
      "pe": 4431,
      "pag": 4432,
      "rer": 4433,
      "wil": 4434,
      "yage": 4435,
      "kotab": 4436,
      "komurwon": 4437,
      "kitil": 4438,
      "akan": 4439,
      "amoche": 4440,
      "eir": 4441,
      "anatet": 4442,
      "guuk": 4443,
      "Kibo": 4444,
      "una": 4445,
      "otet": 4446,
      "yaamaat": 4447,
      "jingei": 4448,
      "kasi": 4449,
      "ungu": 4450,
      "ebar": 4451,
      "inyoru": 4452,
      "kweri": 4453,
      "kipruto": 4454,
      "chamanik": 4455,
      "yiei": 4456,
      "kibageng": 4457,
      "kenyoru": 4458,
      "Chor": 4459,
      "Chame": 4460,
      "aae": 4461,
      "nganasookwak": 4462,
      "konyooru": 4463,
      "konyegap": 4464,
      "lugeennyi": 4465,
      "komosin": 4466,
      "nyaliil": 4467,
      "mbareenigap": 4468,
      "kilit": 4469,
      "terter": 4470,
      "keelyegap": 4471,
      "ingoek": 4472,
      "osotyot": 4473,
      "kitikin": 4474,
      "Benaiah": 4475,
      "riibiigap": 4476,
      "keelyekyuk": 4477,
      "Amasia": 4478,
      "kooriikwak": 4479,
      "metowekwak": 4480,
      "ortinweguk": 4481,
      "nyasutiet": 4482,
      "nereekyi": 4483,
      "kapkorosusyek": 4484,
      "ngeguutap": 4485,
      "kochoorgei": 4486,
      "nino": 4487,
      "Yaei": 4488,
      "kobunjiin": 4489,
      "tambeesik": 4490,
      "sipitali": 4491,
      "Mab": 4492,
      "Semai": 4493,
      "Sinai": 4494,
      "Yun": 4495,
      "aee": 4496,
      "buch": 4497,
      "endos": 4498,
      "ien": 4499,
      "oee": 4500,
      "pwan": 4501,
      "rum": 4502,
      "yennywa": 4503,
      "kotiliil": 4504,
      "kokwong": 4505,
      "kite": 4506,
      "kitoret": 4507,
      "kitiliil": 4508,
      "kiibu": 4509,
      "akas": 4510,
      "chem": 4511,
      "chesa": 4512,
      "ikwa": 4513,
      "tuka": 4514,
      "tuyi": 4515,
      "lend": 4516,
      "are": 4517,
      "matu": 4518,
      "ereni": 4519,
      "alil": 4520,
      "kobunei": 4521,
      "kobootech": 4522,
      "asenet": 4523,
      "anyoor": 4524,
      "yel": 4525,
      "icheget": 4526,
      "komat": 4527,
      "rauni": 4528,
      "iluu": 4529,
      "kipchur": 4530,
      "ubi": 4531,
      "utikyuk": 4532,
      "nganasennyi": 4533,
      "onindet": 4534,
      "landa": 4535,
      "wanu": 4536,
      "weigei": 4537,
      "koyait": 4538,
      "netinyei": 4539,
      "keluul": 4540,
      "asia": 4541,
      "kesweek": 4542,
      "toroornatennyi": 4543,
      "katigon": 4544,
      "sobon": 4545,
      "oorchingei": 4546,
      "kayaneng": 4547,
      "agaakte": 4548,
      "eshek": 4549,
      "lumeiywek": 4550,
      "teekseet": 4551,
      "kapkorosuut": 4552,
      "Kongoi": 4553,
      "atindonik": 4554,
      "yumgei": 4555,
      "mestoweek": 4556,
      "kitupchi": 4557,
      "ilgal": 4558,
      "kagasetapkei": 4559,
      "kalilanet": 4560,
      "suumeek": 4561,
      "nyiitootiin": 4562,
      "kuniok": 4563,
      "Okweek": 4564,
      "Semaiah": 4565,
      "Aser": 4566,
      "Gilgal": 4567,
      "Kwo": 4568,
      "Kiib": 4569,
      "Sal": 4570,
      "iu": 4571,
      "iboiboi": 4572,
      "kul": 4573,
      "oyan": 4574,
      "poochin": 4575,
      "paibai": 4576,
      "yun": 4577,
      "ywa": 4578,
      "kitun": 4579,
      "kimwachi": 4580,
      "kiboisie": 4581,
      "nyasu": 4582,
      "talend": 4583,
      "ooit": 4584,
      "ndan": 4585,
      "iile": 4586,
      "togei": 4587,
      "iseet": 4588,
      "enin": 4589,
      "Kiguure": 4590,
      "kobit": 4591,
      "kobwaat": 4592,
      "kenyi": 4593,
      "osap": 4594,
      "iikyi": 4595,
      "yoei": 4596,
      "yaiywo": 4597,
      "ibeetapkei": 4598,
      "Amuchi": 4599,
      "konunoik": 4600,
      "tele": 4601,
      "Chooto": 4602,
      "kabwo": 4603,
      "Nga": 4604,
      "umda": 4605,
      "menye": 4606,
      "koywei": 4607,
      "nyalili": 4608,
      "Yahudyot": 4609,
      "irimeetap": 4610,
      "iwend": 4611,
      "Bethlehem": 4612,
      "paorinik": 4613,
      "choorgei": 4614,
      "imwachi": 4615,
      "yamegei": 4616,
      "saaet": 4617,
      "koguber": 4618,
      "tengekwogikwak": 4619,
      "keker": 4620,
      "ibinwekwak": 4621,
      "kiteebe": 4622,
      "kalewenet": 4623,
      "kisichei": 4624,
      "kuinoik": 4625,
      "Merari": 4626,
      "kugoinatet": 4627,
      "silingisyek": 4628,
      "chepkichutit": 4629,
      "Kipokeo": 4630,
      "Bel": 4631,
      "Har": 4632,
      "Katu": 4633,
      "Net": 4634,
      "Ner": 4635,
      "Nito": 4636,
      "Seir": 4637,
      "bunu": 4638,
      "den": 4639,
      "enech": 4640,
      "kuu": 4641,
      "ptoben": 4642,
      "tinwek": 4643,
      "chun": 4644,
      "newon": 4645,
      "nyuu": 4646,
      "akte": 4647,
      "akweetap": 4648,
      "ndonooto": 4649,
      "amai": 4650,
      "apchi": 4651,
      "uui": 4652,
      "Kile": 4653,
      "Kiri": 4654,
      "ityaach": 4655,
      "otebi": 4656,
      "kende": 4657,
      "tibik": 4658,
      "iram": 4659,
      "irwookyi": 4660,
      "ilet": 4661,
      "korir": 4662,
      "iba": 4663,
      "ibaibai": 4664,
      "karaar": 4665,
      "ulam": 4666,
      "kiget": 4667,
      "Agoi": 4668,
      "kimak": 4669,
      "siruutik": 4670,
      "Kiptayat": 4671,
      "murwooni": 4672,
      "alaaljin": 4673,
      "poisyee": 4674,
      "mengen": 4675,
      "oorugei": 4676,
      "Elia": 4677,
      "kokwee": 4678,
      "ereneet": 4679,
      "cheptonyi": 4680,
      "kiptaiyandeng": 4681,
      "kaptisisyetap": 4682,
      "kabatishet": 4683,
      "Ahasia": 4684,
      "koweektagei": 4685,
      "lapkeiyetap": 4686,
      "igoite": 4687,
      "emainnyi": 4688,
      "kwenunnyi": 4689,
      "kogutung": 4690,
      "sigiroik": 4691,
      "aibaitune": 4692,
      "Kaleb": 4693,
      "alaale": 4694,
      "atuutyeng": 4695,
      "koindonyi": 4696,
      "aketukul": 4697,
      "sumek": 4698,
      "kapkirwok": 4699,
      "lelesta": 4700,
      "frika": 4701,
      "kamuktain": 4702,
      "Midian": 4703,
      "koboiboitu": 4704,
      "Mikah": 4705,
      "fuja": 4706,
      "parunenik": 4707,
      "chepkugoniot": 4708,
      "uchumi": 4709,
      "chesawil": 4710,
      "kipchurchur": 4711,
      "karaarani": 4712,
      "Bek": 4713,
      "Lot": 4714,
      "Reb": 4715,
      "imuch": 4716,
      "map": 4717,
      "muuch": 4718,
      "oyachi": 4719,
      "toochi": 4720,
      "kochor": 4721,
      "chegi": 4722,
      "chekororon": 4723,
      "ooti": 4724,
      "ndere": 4725,
      "oreek": 4726,
      "ainet": 4727,
      "isik": 4728,
      "isai": 4729,
      "amuch": 4730,
      "enai": 4731,
      "uunet": 4732,
      "Kiteb": 4733,
      "woi": 4734,
      "mash": 4735,
      "tugun": 4736,
      "asoman": 4737,
      "kekoch": 4738,
      "keboisie": 4739,
      "yesta": 4740,
      "ilas": 4741,
      "ilasu": 4742,
      "iboorchi": 4743,
      "usik": 4744,
      "chamane": 4745,
      "nyochi": 4746,
      "uneng": 4747,
      "konun": 4748,
      "kenyishek": 4749,
      "kiyum": 4750,
      "Chamei": 4751,
      "utikab": 4752,
      "nerek": 4753,
      "woop": 4754,
      "togeetap": 4755,
      "togeennyu": 4756,
      "punji": 4757,
      "punoot": 4758,
      "kouny": 4759,
      "teechei": 4760,
      "boriet": 4761,
      "nengung": 4762,
      "kitang": 4763,
      "yondoni": 4764,
      "teerchiin": 4765,
      "aaregap": 4766,
      "esho": 4767,
      "koyay": 4768,
      "ndein": 4769,
      "kotuch": 4770,
      "konetindet": 4771,
      "konetinte": 4772,
      "imwae": 4773,
      "igoortap": 4774,
      "saboonwekwok": 4775,
      "konoraik": 4776,
      "mengechen": 4777,
      "bolutik": 4778,
      "bolatet": 4779,
      "kutusweegap": 4780,
      "sesenik": 4781,
      "kagesunet": 4782,
      "kobogoryo": 4783,
      "nyumnyum": 4784,
      "libwoop": 4785,
      "taabook": 4786,
      "Keerei": 4787,
      "Leah": 4788,
      "Ureri": 4789,
      "Weeriinnyu": 4790,
      "Jez": 4791,
      "Ked": 4792,
      "Otyen": 4793,
      "andoi": 4794,
      "aaret": 4795,
      "beni": 4796,
      "eguk": 4797,
      "fi": 4798,
      "gee": 4799,
      "kl": 4800,
      "lip": 4801,
      "luuk": 4802,
      "oin": 4803,
      "ocham": 4804,
      "onde": 4805,
      "oinet": 4806,
      "put": 4807,
      "suk": 4808,
      "woochi": 4809,
      "zania": 4810,
      "kokonu": 4811,
      "ngok": 4812,
      "choru": 4813,
      "kitoroor": 4814,
      "kitogosta": 4815,
      "akwet": 4816,
      "tagun": 4817,
      "cheechen": 4818,
      "ameng": 4819,
      "ites": 4820,
      "otit": 4821,
      "bosyek": 4822,
      "yeb": 4823,
      "tiendo": 4824,
      "yowe": 4825,
      "gogo": 4826,
      "komai": 4827,
      "eber": 4828,
      "korib": 4829,
      "obend": 4830,
      "karur": 4831,
      "kimon": 4832,
      "oonu": 4833,
      "ubet": 4834,
      "wonyuni": 4835,
      "chaakta": 4836,
      "wanin": 4837,
      "koichooto": 4838,
      "kolila": 4839,
      "woot": 4840,
      "kwandanyo": 4841,
      "keben": 4842,
      "mechei": 4843,
      "pounikyik": 4844,
      "isyechin": 4845,
      "acheeng": 4846,
      "baibait": 4847,
      "kokweri": 4848,
      "ruitos": 4849,
      "sobeet": 4850,
      "tupchenyu": 4851,
      "Sihon": 4852,
      "atoni": 4853,
      "Philipu": 4854,
      "sogor": 4855,
      "riibindet": 4856,
      "koroorigap": 4857,
      "tiibiikyik": 4858,
      "kobutyo": 4859,
      "tekset": 4860,
      "kotokyi": 4861,
      "pistoet": 4862,
      "Gibeon": 4863,
      "obargei": 4864,
      "werie": 4865,
      "Ramah": 4866,
      "totiin": 4867,
      "liilindap": 4868,
      "oogisto": 4869,
      "kosupkei": 4870,
      "Hesbon": 4871,
      "itoonwegap": 4872,
      "ngecheret": 4873,
      "nyasusiet": 4874,
      "Jezreel": 4875,
      "Hil": 4876,
      "Iyae": 4877,
      "Kako": 4878,
      "Mil": 4879,
      "Par": 4880,
      "Su": 4881,
      "af": 4882,
      "acham": 4883,
      "gan": 4884,
      "joror": 4885,
      "lit": 4886,
      "mot": 4887,
      "mage": 4888,
      "myat": 4889,
      "mwee": 4890,
      "nah": 4891,
      "pse": 4892,
      "rik": 4893,
      "seng": 4894,
      "sor": 4895,
      "kopa": 4896,
      "kotoroor": 4897,
      "etkonda": 4898,
      "nego": 4899,
      "kitabaan": 4900,
      "ageni": 4901,
      "ori": 4902,
      "iste": 4903,
      "atei": 4904,
      "amunee": 4905,
      "amuchi": 4906,
      "aro": 4907,
      "arit": 4908,
      "aruk": 4909,
      "Kitu": 4910,
      "Kifuja": 4911,
      "eetei": 4912,
      "simo": 4913,
      "asiir": 4914,
      "kecham": 4915,
      "oset": 4916,
      "omeny": 4917,
      "omben": 4918,
      "okyi": 4919,
      "komagat": 4920,
      "imeche": 4921,
      "imenye": 4922,
      "ileen": 4923,
      "kosas": 4924,
      "kongem": 4925,
      "mwae": 4926,
      "mwachin": 4927,
      "chuto": 4928,
      "kamenyi": 4929,
      "kimwaita": 4930,
      "Chebet": 4931,
      "lokoi": 4932,
      "daat": 4933,
      "ootin": 4934,
      "betushek": 4935,
      "noton": 4936,
      "netos": 4937,
      "poisyennywa": 4938,
      "indochi": 4939,
      "koonu": 4940,
      "poortap": 4941,
      "kebeberwegap": 4942,
      "robi": 4943,
      "yaitwogik": 4944,
      "rirek": 4945,
      "awee": 4946,
      "urerie": 4947,
      "karonet": 4948,
      "kimito": 4949,
      "yosye": 4950,
      "makararan": 4951,
      "koraat": 4952,
      "inichooto": 4953,
      "konyekwak": 4954,
      "murenigap": 4955,
      "wendot": 4956,
      "teta": 4957,
      "ngoryeetap": 4958,
      "komenyei": 4959,
      "aanyei": 4960,
      "asaain": 4961,
      "melisyek": 4962,
      "katunisyet": 4963,
      "Barn": 4964,
      "nyikanatet": 4965,
      "karwotita": 4966,
      "kerubisyek": 4967,
      "kwesik": 4968,
      "Sarah": 4969,
      "emwachi": 4970,
      "kabuuset": 4971,
      "arusen": 4972,
      "Sidon": 4973,
      "otwoknateet": 4974,
      "togoch": 4975,
      "Poisyonik": 4976,
      "liplib": 4977,
      "Bos": 4978,
      "Gaigai": 4979,
      "Han": 4980,
      "Hanani": 4981,
      "Ip": 4982,
      "Mah": 4983,
      "Obed": 4984,
      "Sab": 4985,
      "Sait": 4986,
      "bes": 4987,
      "itoret": 4988,
      "mwani": 4989,
      "myandos": 4990,
      "ochi": 4991,
      "yeetap": 4992,
      "za": 4993,
      "kotabaan": 4994,
      "ngwony": 4995,
      "kich": 4996,
      "kindet": 4997,
      "kimanda": 4998,
      "cheru": 4999,
      "ikyi": 5000,
      "agi": 5001,
      "aita": 5002,
      "Kit": 5003,
      "Kichop": 5004,
      "abui": 5005,
      "mandoi": 5006,
      "itereni": 5007,
      "alei": 5008,
      "koberber": 5009,
      "wah": 5010,
      "asoomin": 5011,
      "osto": 5012,
      "emo": 5013,
      "icheeng": 5014,
      "omenye": 5015,
      "komakat": 5016,
      "iloh": 5017,
      "koret": 5018,
      "urwetap": 5019,
      "ibwat": 5020,
      "karta": 5021,
      "ishee": 5022,
      "Kou": 5023,
      "tililen": 5024,
      "pandap": 5025,
      "imaas": 5026,
      "Abwati": 5027,
      "lakwenyi": 5028,
      "oomok": 5029,
      "ananda": 5030,
      "petushek": 5031,
      "boroindo": 5032,
      "peetuusyechu": 5033,
      "tebut": 5034,
      "tebutik": 5035,
      "Sheba": 5036,
      "kogasei": 5037,
      "maimuch": 5038,
      "robinikab": 5039,
      "cheptong": 5040,
      "iyotennyi": 5041,
      "porotennyi": 5042,
      "paoryat": 5043,
      "ayum": 5044,
      "polatet": 5045,
      "kariikyik": 5046,
      "yamdaet": 5047,
      "kibarei": 5048,
      "kemounooto": 5049,
      "kiname": 5050,
      "lolet": 5051,
      "kagogees": 5052,
      "eesyoi": 5053,
      "chepkul": 5054,
      "koyom": 5055,
      "Asaain": 5056,
      "Jehoiakim": 5057,
      "yetuneng": 5058,
      "sinagogit": 5059,
      "chalwokto": 5060,
      "Meditereni": 5061,
      "melelda": 5062,
      "kipchabonik": 5063,
      "rwondo": 5064,
      "kigombet": 5065,
      "Uriah": 5066,
      "poiboiy": 5067,
      "Kaneetindoni": 5068,
      "teksosiek": 5069,
      "Kiriath": 5070,
      "nderef": 5071,
      "Mediterenian": 5072,
      ".)": 5073,
      "Gath": 5074,
      "Ja": 5075,
      "Jei": 5076,
      "Kw": 5077,
      "Kad": 5078,
      "Meet": 5079,
      "Rib": 5080,
      "Sis": 5081,
      "Tan": 5082,
      "achamin": 5083,
      "bal": 5084,
      "gegei": 5085,
      "mya": 5086,
      "tak": 5087,
      "wig": 5088,
      "kopir": 5089,
      "kogoitoi": 5090,
      "kotonone": 5091,
      "ngap": 5092,
      "kiya": 5093,
      "kiser": 5094,
      "kisich": 5095,
      "kitonondos": 5096,
      "akwek": 5097,
      "chechi": 5098,
      "cheguuk": 5099,
      "oone": 5100,
      "amisye": 5101,
      "agitu": 5102,
      "aia": 5103,
      "isoo": 5104,
      "inat": 5105,
      "ining": 5106,
      "tailel": 5107,
      "Kibendi": 5108,
      "woun": 5109,
      "abire": 5110,
      "itindet": 5111,
      "koboto": 5112,
      "waagaat": 5113,
      "musog": 5114,
      "chitab": 5115,
      "iikwak": 5116,
      "tiy": 5117,
      "uth": 5118,
      "jige": 5119,
      "oiboi": 5120,
      "wekyik": 5121,
      "ilaach": 5122,
      "piikwak": 5123,
      "usu": 5124,
      "usei": 5125,
      "kipkaa": 5126,
      "kariigap": 5127,
      "kibun": 5128,
      "kwondap": 5129,
      "kerat": 5130,
      "kerkei": 5131,
      "kenyooru": 5132,
      "ineeti": 5133,
      "chepchep": 5134,
      "cheptug": 5135,
      "lokoek": 5136,
      "loiseet": 5137,
      "kanag": 5138,
      "tengekwogigap": 5139,
      "komostab": 5140,
      "sokol": 5141,
      "nato": 5142,
      "naat": 5143,
      "naar": 5144,
      "tuindo": 5145,
      "namgei": 5146,
      "togeet": 5147,
      "chorset": 5148,
      "boisietab": 5149,
      "kesar": 5150,
      "keskei": 5151,
      "pogolwogik": 5152,
      "kati": 5153,
      "konyonei": 5154,
      "nereechi": 5155,
      "Shiloh": 5156,
      "tesetab": 5157,
      "koikeny": 5158,
      "yaakta": 5159,
      "kamuis": 5160,
      "tumda": 5161,
      "chebunu": 5162,
      "wiirchin": 5163,
      "kakwo": 5164,
      "tiseiywotap": 5165,
      "kogereer": 5166,
      "kergeindo": 5167,
      "Igoochin": 5168,
      "werit": 5169,
      "koguiyo": 5170,
      "tengekwogikyok": 5171,
      "kamwachi": 5172,
      "tegeet": 5173,
      "kirwoogutiguk": 5174,
      "tononie": 5175,
      "kalasunoik": 5176,
      "boishonik": 5177,
      "chirchir": 5178,
      "inaatut": 5179,
      "koriikyi": 5180,
      "talam": 5181,
      "kirwoogutikyuk": 5182,
      "ngolyo": 5183,
      "tamirmiryet": 5184,
      "yetunennyu": 5185,
      "siraat": 5186,
      "ogoite": 5187,
      "mooriikyik": 5188,
      "katyaget": 5189,
      "parbareek": 5190,
      "mukulel": 5191,
      "Tisiik": 5192,
      "Kohat": 5193,
      "ichuutegei": 5194,
      "kipchurchuryet": 5195,
      "Hilkiah": 5196,
      "Ane": 5197,
      "Aar": 5198,
      "Anyiny": 5199,
      "Inde": 5200,
      "Jas": 5201,
      "Mu": 5202,
      "Mochei": 5203,
      "Sil": 5204,
      "Tob": 5205,
      "Tie": 5206,
      "Tamar": 5207,
      "ayaun": 5208,
      "bwa": 5209,
      "hek": 5210,
      "ial": 5211,
      "iwal": 5212,
      "ija": 5213,
      "ksei": 5214,
      "mek": 5215,
      "meel": 5216,
      "mitei": 5217,
      "noo": 5218,
      "peelei": 5219,
      "pendo": 5220,
      "kowe": 5221,
      "koob": 5222,
      "koton": 5223,
      "kondap": 5224,
      "koguure": 5225,
      "kowolji": 5226,
      "koalda": 5227,
      "ngu": 5228,
      "chon": 5229,
      "negi": 5230,
      "kiil": 5231,
      "kini": 5232,
      "kiip": 5233,
      "kindoi": 5234,
      "kiwal": 5235,
      "nyoni": 5236,
      "tamang": 5237,
      "oonei": 5238,
      "ndai": 5239,
      "engei": 5240,
      "amek": 5241,
      "atebee": 5242,
      "leweni": 5243,
      "enetap": 5244,
      "uueen": 5245,
      "Kime": 5246,
      "mah": 5247,
      "ityi": 5248,
      "eret": 5249,
      "erin": 5250,
      "ereet": 5251,
      "kobutok": 5252,
      "wakik": 5253,
      "askarik": 5254,
      "chitugul": 5255,
      "boiyot": 5256,
      "kesich": 5257,
      "Toreti": 5258,
      "kaik": 5259,
      "kaagaa": 5260,
      "uket": 5261,
      "ukei": 5262,
      "oku": 5263,
      "eso": 5264,
      "imoong": 5265,
      "korwookyi": 5266,
      "iberber": 5267,
      "kotiiny": 5268,
      "ingol": 5269,
      "igeni": 5270,
      "obendi": 5271,
      "karisiek": 5272,
      "kibut": 5273,
      "kiberuur": 5274,
      "kibatisan": 5275,
      "kereetap": 5276,
      "waitoi": 5277,
      "paronok": 5278,
      "ongoi": 5279,
      "onia": 5280,
      "iilgei": 5281,
      "konyolu": 5282,
      "Mand": 5283,
      "cheptailel": 5284,
      "koitu": 5285,
      "koigap": 5286,
      "maget": 5287,
      "meneet": 5288,
      "nyalun": 5289,
      "chorik": 5290,
      "choriren": 5291,
      "toreteet": 5292,
      "yannywa": 5293,
      "teebe": 5294,
      "Ogeer": 5295,
      "tunwek": 5296,
      "weeriikwak": 5297,
      "tesoksei": 5298,
      "olyoondennyu": 5299,
      "kurgotigap": 5300,
      "atebi": 5301,
      "nyanjetap": 5302,
      "arorchi": 5303,
      "siirto": 5304,
      "siirtoot": 5305,
      "maimuchi": 5306,
      "poroteng": 5307,
      "kagoochinoikwak": 5308,
      "anendet": 5309,
      "koteebee": 5310,
      "ngoryonooto": 5311,
      "tabanu": 5312,
      "Igoochi": 5313,
      "Kobooch": 5314,
      "saboonwegap": 5315,
      "Nyalu": 5316,
      "kimwae": 5317,
      "Boaz": 5318,
      "teeks": 5319,
      "elyeb": 5320,
      "kiwotosyek": 5321,
      "kobunjook": 5322,
      "wagik": 5323,
      "Nyolu": 5324,
      "kobwonji": 5325,
      "urukto": 5326,
      "betushiek": 5327,
      "logoiwek": 5328,
      "porowet": 5329,
      "talendaisyek": 5330,
      "Rebeka": 5331,
      "tagunoot": 5332,
      "tamangap": 5333,
      "Jot": 5334,
      "Jeph": 5335,
      "Kel": 5336,
      "Lib": 5337,
      "Meng": 5338,
      "Matinye": 5339,
      "Nun": 5340,
      "To": 5341,
      "Yu": 5342,
      "aneet": 5343,
      "ey": 5344,
      "echei": 5345,
      "eck": 5346,
      "ieet": 5347,
      "lai": 5348,
      "moror": 5349,
      "koiy": 5350,
      "kochu": 5351,
      "kowalak": 5352,
      "etit": 5353,
      "kitogos": 5354,
      "akwai": 5355,
      "inatu": 5356,
      "arenik": 5357,
      "uup": 5358,
      "abaibai": 5359,
      "itet": 5360,
      "erus": 5361,
      "kobaibait": 5362,
      "mul": 5363,
      "mus": 5364,
      "asha": 5365,
      "chigap": 5366,
      "kesoman": 5367,
      "miach": 5368,
      "Toret": 5369,
      "yom": 5370,
      "jine": 5371,
      "kaang": 5372,
      "omong": 5373,
      "elah": 5374,
      "komiitei": 5375,
      "rah": 5376,
      "korobon": 5377,
      "uryo": 5378,
      "koget": 5379,
      "kotye": 5380,
      "kotyen": 5381,
      "laitornatosyek": 5382,
      "kipendi": 5383,
      "momi": 5384,
      "kosom": 5385,
      "otog": 5386,
      "leluut": 5387,
      "iyana": 5388,
      "kasetap": 5389,
      "kerip": 5390,
      "itoik": 5391,
      "kiyookto": 5392,
      "Kobo": 5393,
      "sirchi": 5394,
      "uganda": 5395,
      "mana": 5396,
      "wonyut": 5397,
      "Mata": 5398,
      "keteech": 5399,
      "ketech": 5400,
      "Amele": 5401,
      "koonech": 5402,
      "lagokab": 5403,
      "pandek": 5404,
      "kitebyei": 5405,
      "kolset": 5406,
      "baale": 5407,
      "kebir": 5408,
      "magennyi": 5409,
      "chorwet": 5410,
      "berber": 5411,
      "tiliilindo": 5412,
      "taret": 5413,
      "tareti": 5414,
      "robo": 5415,
      "kebeberyat": 5416,
      "aleekwak": 5417,
      "kitaach": 5418,
      "komoswekyik": 5419,
      "tupchennyi": 5420,
      "tesei": 5421,
      "gaigai": 5422,
      "nyiganitu": 5423,
      "nyanjosyek": 5424,
      "ayain": 5425,
      "otwogikyuk": 5426,
      "agaaktoi": 5427,
      "oldanyu": 5428,
      "riibindetap": 5429,
      "kimnateennyu": 5430,
      "mureno": 5431,
      "koweekyigei": 5432,
      "kabwaatu": 5433,
      "looen": 5434,
      "kitabushek": 5435,
      "nyamdut": 5436,
      "kwenunnyo": 5437,
      "chereng": 5438,
      "cheribe": 5439,
      "Chamyeng": 5440,
      "tegen": 5441,
      "panyeegap": 5442,
      "toriityon": 5443,
      "kobetyo": 5444,
      "mogoonik": 5445,
      "lalang": 5446,
      "ngeguut": 5447,
      "ngeguusyek": 5448,
      "ripik": 5449,
      "kiteechei": 5450,
      "Kaine": 5451,
      "iibegei": 5452,
      "taachei": 5453,
      "keterut": 5454,
      "natosyeguk": 5455,
      "warenget": 5456,
      "kiboorsee": 5457,
      "kirgooto": 5458,
      "kotorookta": 5459,
      "Tarsis": 5460,
      "tangoita": 5461,
      "wahili": 5462,
      "meeliit": 5463,
      "Mandela": 5464,
      "'?”": 5465,
      "Anee": 5466,
      "Aasu": 5467,
      "Ez": 5468,
      "Eth": 5469,
      "Her": 5470,
      "Jed": 5471,
      "Joram": 5472,
      "Kush": 5473,
      "Mikai": 5474,
      "Piik": 5475,
      "Pendi": 5476,
      "Paibai": 5477,
      "Sim": 5478,
      "Seb": 5479,
      "Sapan": 5480,
      "gaksei": 5481,
      "laldos": 5482,
      "mamiten": 5483,
      "ov": 5484,
      "och": 5485,
      "tiir": 5486,
      "weennyu": 5487,
      "koun": 5488,
      "koos": 5489,
      "koanyiny": 5490,
      "nenywa": 5491,
      "nenyin": 5492,
      "ndisyek": 5493,
      "eker": 5494,
      "orok": 5495,
      "ail": 5496,
      "aiyeb": 5497,
      "isiir": 5498,
      "atil": 5499,
      "amuuchi": 5500,
      "innywa": 5501,
      "ariip": 5502,
      "enit": 5503,
      "mande": 5504,
      "itil": 5505,
      "musok": 5506,
      "tirir": 5507,
      "utyen": 5508,
      "goi": 5509,
      "icheket": 5510,
      "kaikai": 5511,
      "olei": 5512,
      "imong": 5513,
      "ebei": 5514,
      "eben": 5515,
      "ebes": 5516,
      "korotik": 5517,
      "weg": 5518,
      "karu": 5519,
      "ookyin": 5520,
      "otosyek": 5521,
      "kerib": 5522,
      "konunot": 5523,
      "itondo": 5524,
      "kirog": 5525,
      "kirindoi": 5526,
      "kame": 5527,
      "kimiti": 5528,
      "Chop": 5529,
      "waite": 5530,
      "uutyet": 5531,
      "utikwak": 5532,
      "manach": 5533,
      "iilaat": 5534,
      "konyiti": 5535,
      "ketar": 5536,
      "ketoret": 5537,
      "ketubet": 5538,
      "Amnon": 5539,
      "bend": 5540,
      "kitebee": 5541,
      "kolaachi": 5542,
      "koboisyei": 5543,
      "kebwa": 5544,
      "kebeel": 5545,
      "namegei": 5546,
      "inyeendet": 5547,
      "netinye": 5548,
      "eiywotap": 5549,
      "yandennyi": 5550,
      "keetoto": 5551,
      "gaat": 5552,
      "temel": 5553,
      "tanso": 5554,
      "ngalekab": 5555,
      "Ingoek": 5556,
      "athar": 5557,
      "tupchosyekwok": 5558,
      "wookyini": 5559,
      "chobe": 5560,
      "rwany": 5561,
      "mogornateet": 5562,
      "chechuuk": 5563,
      "kandoindetab": 5564,
      "kinamjin": 5565,
      "katam": 5566,
      "iosiek": 5567,
      "chirenik": 5568,
      "abwati": 5569,
      "kagesunetap": 5570,
      "boiboyet": 5571,
      "Abiathar": 5572,
      "kisikyi": 5573,
      "Kogeny": 5574,
      "ofisit": 5575,
      "chemiach": 5576,
      "kapkirwook": 5577,
      "twaei": 5578,
      "welelgei": 5579,
      "Uzziah": 5580,
      "Gedalia": 5581,
      "pwanji": 5582,
      "lokoiwek": 5583,
      "Barnaba": 5584,
      "Jephta": 5585,
      "Aasuerus": 5586,
      "Mikaia": 5587,
      "Ap": 5588,
      "Ath": 5589,
      "Gom": 5590,
      "Inet": 5591,
      "Igoitoi": 5592,
      "Kes": 5593,
      "Mangen": 5594,
      "Nah": 5595,
      "Pa": 5596,
      "Pun": 5597,
      "Rwa": 5598,
      "Tee": 5599,
      "aneendet": 5600,
      "iyomis": 5601,
      "mamache": 5602,
      "omut": 5603,
      "rek": 5604,
      "zah": 5605,
      "koil": 5606,
      "koyat": 5607,
      "kondoi": 5608,
      "kocher": 5609,
      "choorchingei": 5610,
      "nema": 5611,
      "kieng": 5612,
      "kigoitoi": 5613,
      "kiyay": 5614,
      "akwa": 5615,
      "akwong": 5616,
      "ootyo": 5617,
      "amb": 5618,
      "eito": 5619,
      "orah": 5620,
      "lekit": 5621,
      "inoto": 5622,
      "inadab": 5623,
      "arap": 5624,
      "Kiko": 5625,
      "Kito": 5626,
      "Kiyae": 5627,
      "abwaati": 5628,
      "maya": 5629,
      "mayai": 5630,
      "ers": 5631,
      "onit": 5632,
      "tibiik": 5633,
      "ember": 5634,
      "goite": 5635,
      "omete": 5636,
      "eluul": 5637,
      "olasu": 5638,
      "olyetab": 5639,
      "iret": 5640,
      "wekab": 5641,
      "yaigap": 5642,
      "chinin": 5643,
      "koga": 5644,
      "kogaigai": 5645,
      "kogonoor": 5646,
      "ibwoti": 5647,
      "igoochini": 5648,
      "chamwo": 5649,
      "kosaa": 5650,
      "natennywa": 5651,
      "iyumi": 5652,
      "kere": 5653,
      "kenyini": 5654,
      "amach": 5655,
      "amata": 5656,
      "kimwo": 5657,
      "paraa": 5658,
      "sire": 5659,
      "onindo": 5660,
      "komach": 5661,
      "Nganas": 5662,
      "keti": 5663,
      "Ameche": 5664,
      "kolaach": 5665,
      "koboisyee": 5666,
      "ootei": 5667,
      "mbaronik": 5668,
      "teeb": 5669,
      "rireet": 5670,
      "wotyi": 5671,
      "kiboisyei": 5672,
      "sobennyu": 5673,
      "peetuusyeguk": 5674,
      "ortinwekyuk": 5675,
      "atebwo": 5676,
      "saisiek": 5677,
      "oldoi": 5678,
      "rwand": 5679,
      "keelyekwak": 5680,
      "wendotee": 5681,
      "keriingetap": 5682,
      "chiliil": 5683,
      "Koba": 5684,
      "betutab": 5685,
      "kondamet": 5686,
      "kebarei": 5687,
      "muunyuk": 5688,
      "tegel": 5689,
      "ribik": 5690,
      "Kergei": 5691,
      "Adoni": 5692,
      "oryanji": 5693,
      "Kiptaiyandennyu": 5694,
      "yaatei": 5695,
      "kaneetisyosyek": 5696,
      "kowaach": 5697,
      "aragenso": 5698,
      "ngomnatet": 5699,
      "iryagook": 5700,
      "inyaliil": 5701,
      "kepe": 5702,
      "kainaik": 5703,
      "---": 5704,
      "kabuusetap": 5705,
      "toloita": 5706,
      "sinagog": 5707,
      "kaimutiet": 5708,
      "kotechei": 5709,
      "kanisosyek": 5710,
      "oroorek": 5711,
      "tugatug": 5712,
      "kokwotinwek": 5713,
      "keljinet": 5714,
      "kabwatet": 5715,
      "komaswek": 5716,
      "mosoget": 5717,
      "iwendote": 5718,
      "chesawilyet": 5719,
      "obendate": 5720,
      "Tanzania": 5721,
      "Asi": 5722,
      "Ir": 5723,
      "Imache": 5724,
      "Jona": 5725,
      "Tir": 5726,
      "Tindo": 5727,
      "and": 5728,
      "ayachi": 5729,
      "echi": 5730,
      "lah": 5731,
      "nan": 5732,
      "nchirenik": 5733,
      "otaach": 5734,
      "pel": 5735,
      "sti": 5736,
      "tii": 5737,
      "uen": 5738,
      "yonik": 5739,
      "koep": 5740,
      "koiito": 5741,
      "kokararan": 5742,
      "kotokyingei": 5743,
      "koiyweis": 5744,
      "etos": 5745,
      "kimwaei": 5746,
      "kitar": 5747,
      "kigoito": 5748,
      "cheet": 5749,
      "chema": 5750,
      "anap": 5751,
      "agimiit": 5752,
      "apkei": 5753,
      "oriir": 5754,
      "atkei": 5755,
      "atkan": 5756,
      "arwo": 5757,
      "enji": 5758,
      "Kima": 5759,
      "Kige": 5760,
      "abta": 5761,
      "abana": 5762,
      "itiliil": 5763,
      "otwek": 5764,
      "sib": 5765,
      "alyet": 5766,
      "waak": 5767,
      "asap": 5768,
      "asun": 5769,
      "agoite": 5770,
      "keba": 5771,
      "keyae": 5772,
      "kewal": 5773,
      "iikab": 5774,
      "tindoi": 5775,
      "nyita": 5776,
      "utit": 5777,
      "estos": 5778,
      "komam": 5779,
      "imon": 5780,
      "imuuny": 5781,
      "ratotiin": 5782,
      "iityin": 5783,
      "yain": 5784,
      "korubei": 5785,
      "kogoono": 5786,
      "kotin": 5787,
      "ingelel": 5788,
      "kipar": 5789,
      "igees": 5790,
      "karat": 5791,
      "kibend": 5792,
      "nateetap": 5793,
      "natetab": 5794,
      "tisiisyet": 5795,
      "iyoo": 5796,
      "konon": 5797,
      "kenyishiek": 5798,
      "chum": 5799,
      "ogase": 5800,
      "kaib": 5801,
      "kabo": 5802,
      "parweet": 5803,
      "inen": 5804,
      "inende": 5805,
      "istos": 5806,
      "kitoor": 5807,
      "inyendet": 5808,
      "amite": 5809,
      "arawanooto": 5810,
      "sheth": 5811,
      "menegei": 5812,
      "kalye": 5813,
      "otwogin": 5814,
      "lakwan": 5815,
      "yaityoni": 5816,
      "kokwer": 5817,
      "ruondo": 5818,
      "Shal": 5819,
      "keelyeguk": 5820,
      "kamura": 5821,
      "kigomb": 5822,
      "komostanyi": 5823,
      "aarwet": 5824,
      "tononennyi": 5825,
      "chebitoik": 5826,
      "koweekyi": 5827,
      "kutung": 5828,
      "kereruusyek": 5829,
      "kuurei": 5830,
      "tyeniik": 5831,
      "tegat": 5832,
      "kayum": 5833,
      "choronokyik": 5834,
      "luuita": 5835,
      "boishen": 5836,
      "kitesak": 5837,
      "ibutyin": 5838,
      "aipchini": 5839,
      "tebeesindap": 5840,
      "Naomi": 5841,
      "rewoot": 5842,
      "ngolyot": 5843,
      "poipoiti": 5844,
      "Jehova": 5845,
      "Baasha": 5846,
      "konyonji": 5847,
      "Oriipkei": 5848,
      "piteetap": 5849,
      "peechooto": 5850,
      "nyigiisindap": 5851,
      "Kanyool": 5852,
      "pendoti": 5853,
      "taaptook": 5854,
      "pesendo": 5855,
      "pusit": 5856,
      "kimurto": 5857,
      "Betut": 5858,
      "ootaatiin": 5859,
      "kagobata": 5860,
      "Jebusik": 5861,
      "batishet": 5862,
      "Amerika": 5863,
      "Jabes": 5864,
      "chametabgei": 5865,
      "Otyenji": 5866,
      "Aarwet": 5867,
      "Hur": 5868,
      "Ile": 5869,
      "Imuuchi": 5870,
      "Kok": 5871,
      "Koono": 5872,
      "Lako": 5873,
      "Met": 5874,
      "Mang": 5875,
      "Ruto": 5876,
      "Zik": 5877,
      "atok": 5878,
      "ce": 5879,
      "gilead": 5880,
      "hata": 5881,
      "iya": 5882,
      "labat": 5883,
      "muna": 5884,
      "nob": 5885,
      "pooch": 5886,
      "sennyi": 5887,
      "weennyi": 5888,
      "yookto": 5889,
      "koa": 5890,
      "koen": 5891,
      "kokol": 5892,
      "kineet": 5893,
      "kinyalil": 5894,
      "kifaransa": 5895,
      "kinyaliil": 5896,
      "nyiti": 5897,
      "toegei": 5898,
      "iker": 5899,
      "agete": 5900,
      "tuye": 5901,
      "oreng": 5902,
      "aiguk": 5903,
      "inji": 5904,
      "aruu": 5905,
      "wonen": 5906,
      "abel": 5907,
      "mato": 5908,
      "otinwek": 5909,
      "onji": 5910,
      "watutik": 5911,
      "kemwachi": 5912,
      "kemong": 5913,
      "kewel": 5914,
      "tiet": 5915,
      "eli": 5916,
      "ese": 5917,
      "esye": 5918,
      "imoche": 5919,
      "iliige": 5920,
      "koroong": 5921,
      "koriibei": 5922,
      "chino": 5923,
      "ibooru": 5924,
      "kotwa": 5925,
      "kotyem": 5926,
      "kipakenge": 5927,
      "yiema": 5928,
      "kose": 5929,
      "kosobei": 5930,
      "keis": 5931,
      "kibwa": 5932,
      "otonik": 5933,
      "isien": 5934,
      "kaming": 5935,
      "kimit": 5936,
      "kimeto": 5937,
      "Konyo": 5938,
      "indeng": 5939,
      "indennyo": 5940,
      "konyiit": 5941,
      "nena": 5942,
      "ketebi": 5943,
      "tilyon": 5944,
      "laak": 5945,
      "oryani": 5946,
      "kagoyai": 5947,
      "kityaach": 5948,
      "koleel": 5949,
      "lugosyekwak": 5950,
      "kiiti": 5951,
      "kiityi": 5952,
      "metinnyu": 5953,
      "piyo": 5954,
      "shid": 5955,
      "wolwo": 5956,
      "chorwennyu": 5957,
      "poisyeng": 5958,
      "lakwanooto": 5959,
      "koyook": 5960,
      "koyookyi": 5961,
      "Araraita": 5962,
      "kiswahili": 5963,
      "kiboisyee": 5964,
      "Kando": 5965,
      "kanamonigap": 5966,
      "nyoluu": 5967,
      "arorut": 5968,
      "arorutik": 5969,
      "chombil": 5970,
      "yondennyu": 5971,
      "ripo": 5972,
      "tupchosyekyuk": 5973,
      "poisyonikwok": 5974,
      "Kwandang": 5975,
      "kororokto": 5976,
      "sosik": 5977,
      "puunikwok": 5978,
      "yagat": 5979,
      "nyoonjin": 5980,
      "kiboityondeng": 5981,
      "koroorik": 5982,
      "tabanwegap": 5983,
      "Nyoru": 5984,
      "aseia": 5985,
      "kweonik": 5986,
      "koriiryo": 5987,
      "Maked": 5988,
      "Obwaat": 5989,
      "konyalil": 5990,
      "konyaliil": 5991,
      "kabwaatutikwak": 5992,
      "atuutyoni": 5993,
      "yaachi": 5994,
      "libwo": 5995,
      "nyalulat": 5996,
      "Abijah": 5997,
      "rutoito": 5998,
      "menoteetap": 5999,
      "anyoone": 6000,
      "kaimutietab": 6001,
      "ngalalet": 6002,
      "mobeek": 6003,
      "kibeelee": 6004,
      "pireneet": 6005,
      "kaberberisyet": 6006,
      "aboorun": 6007,
      "bororiet": 6008,
      "Yunanik": 6009,
      "Jotham": 6010,
      "Amelegik": 6011,
      "Chamyengung": 6012,
      "rwanyut": 6013,
      "Af": 6014,
      "Hitik": 6015,
      "Im": 6016,
      "Ky": 6017,
      "Kisir": 6018,
      "Konam": 6019,
      "Lo": 6020,
      "Ngol": 6021,
      "Os": 6022,
      "Togoste": 6023,
      "ayan": 6024,
      "biton": 6025,
      "ca": 6026,
      "gem": 6027,
      "hua": 6028,
      "mara": 6029,
      "nnyo": 6030,
      "ou": 6031,
      "rar": 6032,
      "rog": 6033,
      "tyeni": 6034,
      "uji": 6035,
      "kocho": 6036,
      "koner": 6037,
      "koech": 6038,
      "kosig": 6039,
      "kokiki": 6040,
      "kowiir": 6041,
      "koibei": 6042,
      "etei": 6043,
      "kie": 6044,
      "kiu": 6045,
      "kioi": 6046,
      "kikib": 6047,
      "kichor": 6048,
      "kiitu": 6049,
      "kikosirto": 6050,
      "akeng": 6051,
      "tae": 6052,
      "ndeni": 6053,
      "eita": 6054,
      "eiyo": 6055,
      "ageesu": 6056,
      "tuon": 6057,
      "oree": 6058,
      "ateech": 6059,
      "inin": 6060,
      "inetapkei": 6061,
      "enna": 6062,
      "uutigap": 6063,
      "poisyo": 6064,
      "Kiwo": 6065,
      "wowo": 6066,
      "manyoru": 6067,
      "oorsei": 6068,
      "asaru": 6069,
      "kemut": 6070,
      "tindo": 6071,
      "mia": 6072,
      "utyo": 6073,
      "katu": 6074,
      "kakil": 6075,
      "okwak": 6076,
      "eekyigei": 6077,
      "esak": 6078,
      "ilii": 6079,
      "wechini": 6080,
      "inyoi": 6081,
      "inge": 6082,
      "kipl": 6083,
      "uldoi": 6084,
      "kagib": 6085,
      "kigeg": 6086,
      "kigasei": 6087,
      "keret": 6088,
      "kaim": 6089,
      "kiru": 6090,
      "kirinda": 6091,
      "kimwai": 6092,
      "Choru": 6093,
      "some": 6094,
      "Makir": 6095,
      "wanjo": 6096,
      "kagonde": 6097,
      "'.’": 6098,
      "sopet": 6099,
      "Abisai": 6100,
      "iisyat": 6101,
      "boisiek": 6102,
      "uiah": 6103,
      "moing": 6104,
      "moita": 6105,
      "koyasyo": 6106,
      "koityi": 6107,
      "kilas": 6108,
      "kesweegap": 6109,
      "yandit": 6110,
      "kochob": 6111,
      "kouyo": 6112,
      "kisiir": 6113,
      "utietab": 6114,
      "Elam": 6115,
      "Asaph": 6116,
      "petusiek": 6117,
      "rotoogap": 6118,
      "togoste": 6119,
      "ortinwekwok": 6120,
      "tesak": 6121,
      "Lawindet": 6122,
      "kotesetai": 6123,
      "tumin": 6124,
      "emotin": 6125,
      "osotyondonooto": 6126,
      "kandoinatet": 6127,
      "Laitoryatap": 6128,
      "kintee": 6129,
      "Ahija": 6130,
      "komyeeit": 6131,
      "myeeindonyi": 6132,
      "Karmel": 6133,
      "Moabik": 6134,
      "Nyooru": 6135,
      "maste": 6136,
      "nyasut": 6137,
      "rapishek": 6138,
      "mogoryot": 6139,
      "walaksei": 6140,
      "ibinwekwok": 6141,
      "Baruk": 6142,
      "koyumgei": 6143,
      "tebeesindanyi": 6144,
      "kariisyekyik": 6145,
      "aragense": 6146,
      "etunateet": 6147,
      "kuinoigap": 6148,
      "koiitennywa": 6149,
      "mugulelwekyok": 6150,
      "Zeruiah": 6151,
      "iboorwo": 6152,
      "nyalildanyu": 6153,
      "riikyin": 6154,
      "utut": 6155,
      "Icheek": 6156,
      "panganet": 6157,
      "seremutap": 6158,
      "sorom": 6159,
      "Hananiah": 6160,
      "nderefainik": 6161,
      "Kadesh": 6162,
      "stimet": 6163,
      "Shallum": 6164,
      "nobishet": 6165,
      "Makedonia": 6166,
      "!’": 6167,
      "Ako": 6168,
      "Aus": 6169,
      "Asia": 6170,
      "Be": 6171,
      "Ber": 6172,
      "Deb": 6173,
      "Dari": 6174,
      "Ek": 6175,
      "Ileenji": 6176,
      "Ingor": 6177,
      "Kish": 6178,
      "Kep": 6179,
      "Mas": 6180,
      "Moi": 6181,
      "Om": 6182,
      "Piriir": 6183,
      "Rip": 6184,
      "Rep": 6185,
      "Sin": 6186,
      "Tagu": 6187,
      "acha": 6188,
      "awal": 6189,
      "aame": 6190,
      "atonon": 6191,
      "ayaak": 6192,
      "birir": 6193,
      "basit": 6194,
      "hud": 6195,
      "iwong": 6196,
      "md": 6197,
      "pai": 6198,
      "sam": 6199,
      "tei": 6200,
      "koeny": 6201,
      "kotup": 6202,
      "kochok": 6203,
      "kooret": 6204,
      "kowech": 6205,
      "kochilil": 6206,
      "etyo": 6207,
      "nemo": 6208,
      "kikur": 6209,
      "taai": 6210,
      "chemar": 6211,
      "cheyach": 6212,
      "cheyachen": 6213,
      "oome": 6214,
      "ndurer": 6215,
      "tuten": 6216,
      "gul": 6217,
      "atit": 6218,
      "lemb": 6219,
      "inateng": 6220,
      "abet": 6221,
      "abut": 6222,
      "maon": 6223,
      "masta": 6224,
      "eetyi": 6225,
      "anyek": 6226,
      "kechei": 6227,
      "kemeny": 6228,
      "emisy": 6229,
      "kawegap": 6230,
      "oigei": 6231,
      "korok": 6232,
      "urur": 6233,
      "ibik": 6234,
      "ibini": 6235,
      "weche": 6236,
      "igeskei": 6237,
      "chamnyet": 6238,
      "kosoop": 6239,
      "keib": 6240,
      "anichu": 6241,
      "kibwaat": 6242,
      "tisei": 6243,
      "kwonyi": 6244,
      "nyoet": 6245,
      "kerchek": 6246,
      "kono": 6247,
      "tabaa": 6248,
      "Chi": 6249,
      "indonooto": 6250,
      "ineas": 6251,
      "nganaset": 6252,
      "Ameng": 6253,
      "bendo": 6254,
      "etabkei": 6255,
      "kityem": 6256,
      "amitwog": 6257,
      "Abel": 6258,
      "Abwoti": 6259,
      "nae": 6260,
      "koboisyechi": 6261,
      "Judas": 6262,
      "pounatennyi": 6263,
      "artae": 6264,
      "isyechu": 6265,
      "chorwa": 6266,
      "chorwennyi": 6267,
      "Phineas": 6268,
      "lakwani": 6269,
      "ngoroigap": 6270,
      "mbaranooto": 6271,
      "kelunet": 6272,
      "amitwogikab": 6273,
      "upcho": 6274,
      "kogeere": 6275,
      "tari": 6276,
      "Elkan": 6277,
      "robishe": 6278,
      "yumi": 6279,
      "togostoi": 6280,
      "kobwanei": 6281,
      "kooretap": 6282,
      "tanui": 6283,
      "mwaitap": 6284,
      "kurgotiguk": 6285,
      "ereza": 6286,
      "Agoochini": 6287,
      "mbiret": 6288,
      "ormariicho": 6289,
      "imutwaa": 6290,
      "rubet": 6291,
      "kagoochinoikwok": 6292,
      "imuti": 6293,
      "imuisei": 6294,
      "murenj": 6295,
      "igondisyek": 6296,
      "choortegei": 6297,
      "kiboitiinik": 6298,
      "omwachi": 6299,
      "kebeneet": 6300,
      "Petut": 6301,
      "tiibiikwak": 6302,
      "kitur": 6303,
      "Kisom": 6304,
      "sarwo": 6305,
      "werto": 6306,
      "werik": 6307,
      "Johanan": 6308,
      "muutu": 6309,
      "Onge": 6310,
      "lolong": 6311,
      "Inemu": 6312,
      "koistoegei": 6313,
      "Nebat": 6314,
      "mogoywet": 6315,
      "Hamath": 6316,
      "kosapcho": 6317,
      "kabwaatutikyik": 6318,
      "kosubi": 6319,
      "kisikyin": 6320,
      "Persia": 6321,
      "kiitou": 6322,
      "peteinik": 6323,
      "teluji": 6324,
      "Mesulam": 6325,
      "subui": 6326,
      "koeeiso": 6327,
      "kagoriik": 6328,
      "keldap": 6329,
      "baibaiet": 6330,
      "kawekyuk": 6331,
      "tigigo": 6332,
      "maatap": 6333,
      "Nairobi": 6334,
      "kereeriisyek": 6335,
      "aishen": 6336,
      "pukuit": 6337,
      "kibugand": 6338,
      "baruet": 6339,
      "chamanenyu": 6340,
      "kimonjoror": 6341,
      "kamuratanet": 6342,
      "libwoben": 6343,
      "Darius": 6344,
      ").": 6345,
      "Among": 6346,
      "Es": 6347,
      "Emet": 6348,
      "Hag": 6349,
      "Jel": 6350,
      "Kan": 6351,
      "Laki": 6352,
      "Naam": 6353,
      "Nazar": 6354,
      "Onget": 6355,
      "Te": 6356,
      "achei": 6357,
      "atoret": 6358,
      "achicha": 6359,
      "bit": 6360,
      "endet": 6361,
      "echooto": 6362,
      "kutik": 6363,
      "myan": 6364,
      "okoi": 6365,
      "ogoitoi": 6366,
      "pooto": 6367,
      "rutei": 6368,
      "resar": 6369,
      "st": 6370,
      "sasei": 6371,
      "undo": 6372,
      "koiil": 6373,
      "kochamei": 6374,
      "kotononi": 6375,
      "chan": 6376,
      "chuul": 6377,
      "etune": 6378,
      "kiee": 6379,
      "kileen": 6380,
      "kikab": 6381,
      "kishek": 6382,
      "kiongoi": 6383,
      "akuru": 6384,
      "oogik": 6385,
      "aman": 6386,
      "anutik": 6387,
      "agacheek": 6388,
      "isoman": 6389,
      "atindet": 6390,
      "amutun": 6391,
      "enak": 6392,
      "taita": 6393,
      "Kimong": 6394,
      "iteb": 6395,
      "itebee": 6396,
      "ereer": 6397,
      "kobol": 6398,
      "kobarta": 6399,
      "chingei": 6400,
      "anye": 6401,
      "yenen": 6402,
      "yeme": 6403,
      "emesh": 6404,
      "icheru": 6405,
      "kaun": 6406,
      "elet": 6407,
      "esu": 6408,
      "irei": 6409,
      "irwookyin": 6410,
      "komuung": 6411,
      "imo": 6412,
      "oichooto": 6413,
      "oiyond": 6414,
      "kogoonin": 6415,
      "kogoonok": 6416,
      "ibun": 6417,
      "wecho": 6418,
      "ookset": 6419,
      "yie": 6420,
      "kigas": 6421,
      "konik": 6422,
      "konunet": 6423,
      "itok": 6424,
      "kiyan": 6425,
      "kirib": 6426,
      "Cher": 6427,
      "Koma": 6428,
      "indennyu": 6429,
      "ketee": 6430,
      "ketesh": 6431,
      "indetab": 6432,
      "Amoiywei": 6433,
      "murwonen": 6434,
      "yoom": 6435,
      "kagoek": 6436,
      "ndegeit": 6437,
      "sogol": 6438,
      "koboisie": 6439,
      "pounatosyek": 6440,
      "kipsoi": 6441,
      "chokchi": 6442,
      "neta": 6443,
      "poisyoni": 6444,
      "indoe": 6445,
      "toreto": 6446,
      "mbarenik": 6447,
      "berur": 6448,
      "kelto": 6449,
      "sukuli": 6450,
      "eiywo": 6451,
      "adap": 6452,
      "Elis": 6453,
      "choton": 6454,
      "borie": 6455,
      "rotwennyi": 6456,
      "ureri": 6457,
      "urerendos": 6458,
      "mungar": 6459,
      "tupchosyeguk": 6460,
      "kamung": 6461,
      "ilaakyi": 6462,
      "oteo": 6463,
      "komutyi": 6464,
      "iyoe": 6465,
      "koyaun": 6466,
      "paornatosyeguk": 6467,
      "kiboityot": 6468,
      "lumda": 6469,
      "tengekwogikwok": 6470,
      "chubei": 6471,
      "chepyoset": 6472,
      "mosoogik": 6473,
      "iriryot": 6474,
      "Adam": 6475,
      "kagoochinennywa": 6476,
      "ngungunyek": 6477,
      "kimach": 6478,
      "Nandi": 6479,
      "Kinam": 6480,
      "tyonyooto": 6481,
      "tililindo": 6482,
      "Nebukadresar": 6483,
      "kigeerei": 6484,
      "lagookab": 6485,
      "Zerah": 6486,
      "keboishe": 6487,
      "Amwae": 6488,
      "itogunnyi": 6489,
      "Timoteo": 6490,
      "wasetapkei": 6491,
      "emaisyekwak": 6492,
      "telunateet": 6493,
      "sikiik": 6494,
      "kisop": 6495,
      "tambulul": 6496,
      "kitiliili": 6497,
      "cheptugenik": 6498,
      "mukuleldo": 6499,
      "aiyebindo": 6500,
      "Adonijah": 6501,
      "karatwek": 6502,
      "bitonin": 6503,
      "Elkanah": 6504,
      "Jelagat": 6505,
      "Nazareth": 6506,
      "Akot": 6507,
      "Had": 6508,
      "Haz": 6509,
      "Kak": 6510,
      "Kon": 6511,
      "Kage": 6512,
      "Kuur": 6513,
      "Mung": 6514,
      "Mekat": 6515,
      "Nyon": 6516,
      "Oh": 6517,
      "Puch": 6518,
      "Ruth": 6519,
      "Sip": 6520,
      "Tugul": 6521,
      "aak": 6522,
      "ayoo": 6523,
      "bab": 6524,
      "dap": 6525,
      "gl": 6526,
      "geny": 6527,
      "hi": 6528,
      "jub": 6529,
      "onyiny": 6530,
      "pwo": 6531,
      "sag": 6532,
      "sah": 6533,
      "’;": 6534,
      "koeng": 6535,
      "kokwa": 6536,
      "kondang": 6537,
      "koibe": 6538,
      "kocheng": 6539,
      "ets": 6540,
      "nekoi": 6541,
      "kimo": 6542,
      "kimang": 6543,
      "kitokyingei": 6544,
      "kitononi": 6545,
      "kimoche": 6546,
      "akse": 6547,
      "cheko": 6548,
      "oote": 6549,
      "amenye": 6550,
      "amishen": 6551,
      "eke": 6552,
      "tutu": 6553,
      "tuchei": 6554,
      "tuku": 6555,
      "apat": 6556,
      "aiywei": 6557,
      "isulda": 6558,
      "atech": 6559,
      "ino": 6560,
      "aroong": 6561,
      "Kial": 6562,
      "Kite": 6563,
      "kobai": 6564,
      "mug": 6565,
      "kechir": 6566,
      "yekingo": 6567,
      "emaksei": 6568,
      "yogu": 6569,
      "kaki": 6570,
      "kakoit": 6571,
      "toritik": 6572,
      "omuuchi": 6573,
      "anyuno": 6574,
      "olyet": 6575,
      "Akase": 6576,
      "Akerin": 6577,
      "iru": 6578,
      "komak": 6579,
      "imeny": 6580,
      "imwaiwo": 6581,
      "enyii": 6582,
      "iluul": 6583,
      "ebel": 6584,
      "koron": 6585,
      "koriib": 6586,
      "kogim": 6587,
      "kogoonech": 6588,
      "ibor": 6589,
      "ibaibaitu": 6590,
      "ingor": 6591,
      "igonor": 6592,
      "karitab": 6593,
      "chamyetap": 6594,
      "kosegei": 6595,
      "kongalal": 6596,
      "anigap": 6597,
      "kiban": 6598,
      "kibunu": 6599,
      "kiges": 6600,
      "lelwek": 6601,
      "Amunee": 6602,
      "unenen": 6603,
      "kasa": 6604,
      "kirwok": 6605,
      "kami": 6606,
      "kimeche": 6607,
      "kabel": 6608,
      "atui": 6609,
      "sirim": 6610,
      "uboot": 6611,
      "ubabel": 6612,
      "kwenik": 6613,
      "Jesebel": 6614,
      "kiityin": 6615,
      "meting": 6616,
      "yoti": 6617,
      "shemesh": 6618,
      "dod": 6619,
      "atateek": 6620,
      "kipsiich": 6621,
      "kelutap": 6622,
      "koyas": 6623,
      "Arnon": 6624,
      "yokto": 6625,
      "syeguk": 6626,
      "adan": 6627,
      "poorwekwok": 6628,
      "kisoop": 6629,
      "taritik": 6630,
      "taretet": 6631,
      "Eliph": 6632,
      "anoa": 6633,
      "katerteer": 6634,
      "Kandoi": 6635,
      "tabanda": 6636,
      "kikiker": 6637,
      "puunyoo": 6638,
      "amde": 6639,
      "echereet": 6640,
      "riirtos": 6641,
      "tyem": 6642,
      "tyendap": 6643,
      "ilandos": 6644,
      "soget": 6645,
      "tyongik": 6646,
      "arainik": 6647,
      "koyaam": 6648,
      "koyaat": 6649,
      "poiboitu": 6650,
      "mogoreek": 6651,
      "pold": 6652,
      "bukuini": 6653,
      "atiat": 6654,
      "koriirchi": 6655,
      "kopche": 6656,
      "aibu": 6657,
      "Cheptoo": 6658,
      "Jehoahas": 6659,
      "tiris": 6660,
      "itoogut": 6661,
      "Makat": 6662,
      "kiluulei": 6663,
      "kaneetisyosyeguk": 6664,
      "kalewenaik": 6665,
      "Oret": 6666,
      "murwoniitu": 6667,
      "etunatennyi": 6668,
      "fedhai": 6669,
      "nyalulyotin": 6670,
      "unennyo": 6671,
      "Seraiah": 6672,
      "tiibiiguk": 6673,
      "kasartab": 6674,
      "akwotisyegap": 6675,
      "osotikwak": 6676,
      "Zerubabel": 6677,
      "ugutetapkei": 6678,
      "toloitap": 6679,
      "mauek": 6680,
      "ayookte": 6681,
      "Imutu": 6682,
      "natosyegap": 6683,
      "keriingonik": 6684,
      "Malki": 6685,
      "Arabah": 6686,
      "kouungei": 6687,
      "siguunet": 6688,
      "kipsomanian": 6689,
      "kibagengei": 6690,
      "sobonwek": 6691,
      "kebenonik": 6692,
      "ganisa": 6693,
      "liplibenetap": 6694,
      "kabwaatutigap": 6695,
      "Ezrah": 6696,
      "Gomorah": 6697,
      "kosaaei": 6698,
      "sinagogisyek": 6699,
      "kokwotinwekwak": 6700,
      "kinyaliili": 6701,
      "kosigiis": 6702,
      "kioiye": 6703,
      "lembeita": 6704,
      "Lakish": 6705,
      "Hazael": 6706,
      "kipsiichit": 6707,
      "'!": 6708,
      "Alak": 6709,
      "Gaz": 6710,
      "Hiram": 6711,
      "In": 6712,
      "Ineet": 6713,
      "Mamache": 6714,
      "Nd": 6715,
      "Ocheeng": 6716,
      "Ongen": 6717,
      "Ru": 6718,
      "Riir": 6719,
      "Rash": 6720,
      "Tun": 6721,
      "Tugu": 6722,
      "auu": 6723,
      "basa": 6724,
      "iel": 6725,
      "je": 6726,
      "meb": 6727,
      "nu": 6728,
      "nit": 6729,
      "oep": 6730,
      "oame": 6731,
      "pan": 6732,
      "panan": 6733,
      "pwon": 6734,
      "ribei": 6735,
      "sendi": 6736,
      "unda": 6737,
      "vi": 6738,
      "yooktoi": 6739,
      "koar": 6740,
      "koim": 6741,
      "konech": 6742,
      "koeesyo": 6743,
      "koureren": 6744,
      "kotonondos": 6745,
      "kochaakta": 6746,
      "ngemwachi": 6747,
      "choo": 6748,
      "chit": 6749,
      "kiwol": 6750,
      "kisiek": 6751,
      "kitonone": 6752,
      "kiboiboitu": 6753,
      "kiweech": 6754,
      "kitononso": 6755,
      "nyool": 6756,
      "akyin": 6757,
      "tandos": 6758,
      "ooindap": 6759,
      "ndok": 6760,
      "iigu": 6761,
      "eele": 6762,
      "eenywa": 6763,
      "agun": 6764,
      "tuny": 6765,
      "aisiek": 6766,
      "isap": 6767,
      "isaru": 6768,
      "atkai": 6769,
      "uunyi": 6770,
      "potanet": 6771,
      "Kingen": 6772,
      "abaibaitu": 6773,
      "mali": 6774,
      "oteetap": 6775,
      "ooreenywa": 6776,
      "kobara": 6777,
      "kobiyong": 6778,
      "waz": 6779,
      "asom": 6780,
      "neego": 6781,
      "tige": 6782,
      "emee": 6783,
      "icheke": 6784,
      "katuiyet": 6785,
      "elit": 6786,
      "komami": 6787,
      "chiichito": 6788,
      "ure": 6789,
      "ibegei": 6790,
      "ingos": 6791,
      "kiptul": 6792,
      "Iste": 6793,
      "obet": 6794,
      "karugutetapkei": 6795,
      "peetuunnyi": 6796,
      "moek": 6797,
      "aniek": 6798,
      "aniat": 6799,
      "kibur": 6800,
      "kigartaat": 6801,
      "lelutik": 6802,
      "isich": 6803,
      "keriche": 6804,
      "kirwookyi": 6805,
      "Chuboot": 6806,
      "koeku": 6807,
      "sabeet": 6808,
      "sabeennyi": 6809,
      "isyosyek": 6810,
      "biikap": 6811,
      "Maaka": 6812,
      "Maaseia": 6813,
      "chepkametap": 6814,
      "laat": 6815,
      "Amelek": 6816,
      "jinok": 6817,
      "eper": 6818,
      "yoot": 6819,
      "kwenut": 6820,
      "kapkerich": 6821,
      "tengekwogiguk": 6822,
      "kolabat": 6823,
      "Jeshua": 6824,
      "namba": 6825,
      "sandet": 6826,
      "koming": 6827,
      "komito": 6828,
      "kaleel": 6829,
      "tulwet": 6830,
      "peetuusyekyuk": 6831,
      "kipsagar": 6832,
      "chorindet": 6833,
      "ngoroiguk": 6834,
      "yandennyu": 6835,
      "yandanooto": 6836,
      "mengoto": 6837,
      "syechooto": 6838,
      "piribir": 6839,
      "kisaru": 6840,
      "watei": 6841,
      "isiekab": 6842,
      "unygei": 6843,
      "kinyooru": 6844,
      "kinyere": 6845,
      "komoswekwak": 6846,
      "Jehoram": 6847,
      "mwaiwok": 6848,
      "yaityetap": 6849,
      "maingen": 6850,
      "ainoo": 6851,
      "makatiat": 6852,
      "wookse": 6853,
      "Kwandanyo": 6854,
      "kabatis": 6855,
      "sogek": 6856,
      "kanamonikyik": 6857,
      "poiboiyetap": 6858,
      "mogoryo": 6859,
      "riipseet": 6860,
      "paragun": 6861,
      "chilili": 6862,
      "kotindo": 6863,
      "metowek": 6864,
      "saboonwekyok": 6865,
      "serikali": 6866,
      "usoonetap": 6867,
      "kebarge": 6868,
      "iyumjigei": 6869,
      "mamii": 6870,
      "mameche": 6871,
      "lolotinwek": 6872,
      "kopchei": 6873,
      "astaet": 6874,
      "aldae": 6875,
      "kitestai": 6876,
      "rurutik": 6877,
      "chogit": 6878,
      "soket": 6879,
      "eiywekyik": 6880,
      "Joel": 6881,
      "simdo": 6882,
      "ibou": 6883,
      "sanit": 6884,
      "kabotishe": 6885,
      "Gersh": 6886,
      "ugutkei": 6887,
      "pergeiyat": 6888,
      "pergeinik": 6889,
      "rangers": 6890,
      "Midianik": 6891,
      "yookte": 6892,
      "Weeriinnyi": 6893,
      "perurto": 6894,
      "tiongik": 6895,
      "nganasochooto": 6896,
      "oiboen": 6897,
      "tuugeetap": 6898,
      "Philistindet": 6899,
      "tralia": 6900,
      "Emait": 6901,
      "kiprutoinik": 6902,
      "luukwek": 6903,
      "Boston": 6904,
      "mwanigap": 6905,
      "tiironigap": 6906,
      "atebwosyek": 6907,
      "Lakok": 6908,
      "Ekron": 6909,
      "tirisyok": 6910,
      "Aik": 6911,
      "Akis": 6912,
      "Amoche": 6913,
      "Afrika": 6914,
      "Bari": 6915,
      "Haran": 6916,
      "Imut": 6917,
      "Ith": 6918,
      "Jep": 6919,
      "Noto": 6920,
      "Omwachi": 6921,
      "Susa": 6922,
      "Sarai": 6923,
      "Tum": 6924,
      "Yae": 6925,
      "achi": 6926,
      "beit": 6927,
      "dak": 6928,
      "eyai": 6929,
      "gis": 6930,
      "iun": 6931,
      "iwol": 6932,
      "ianyiny": 6933,
      "kris": 6934,
      "las": 6935,
      "lole": 6936,
      "mook": 6937,
      "meetap": 6938,
      "nab": 6939,
      "nwach": 6940,
      "oboiboitu": 6941,
      "red": 6942,
      "rotonik": 6943,
      "sol": 6944,
      "umu": 6945,
      "kopun": 6946,
      "koutye": 6947,
      "kochuchu": 6948,
      "nenyun": 6949,
      "kitor": 6950,
      "kimuchi": 6951,
      "kiyoe": 6952,
      "ndeno": 6953,
      "iimi": 6954,
      "ameny": 6955,
      "ikwerie": 6956,
      "anetap": 6957,
      "oratin": 6958,
      "aim": 6959,
      "arwech": 6960,
      "pokol": 6961,
      "Kiyai": 6962,
      "Kicham": 6963,
      "Kitinyei": 6964,
      "Kiba": 6965,
      "Kibaibait": 6966,
      "wowon": 6967,
      "maata": 6968,
      "eetee": 6969,
      "eetos": 6970,
      "eetyeet": 6971,
      "itebi": 6972,
      "alasu": 6973,
      "onin": 6974,
      "kobeet": 6975,
      "kobaibai": 6976,
      "waata": 6977,
      "asup": 6978,
      "anyal": 6979,
      "bois": 6980,
      "keal": 6981,
      "ostoi": 6982,
      "tipik": 6983,
      "yaata": 6984,
      "emennyu": 6985,
      "ematinwek": 6986,
      "angot": 6987,
      "kaz": 6988,
      "katuyet": 6989,
      "omit": 6990,
      "olindo": 6991,
      "esetai": 6992,
      "irinde": 6993,
      "komoche": 6994,
      "imete": 6995,
      "rataat": 6996,
      "wekta": 6997,
      "ibet": 6998,
      "iboru": 6999,
      "ahat": 7000,
      "kotko": 7001,
      "kotyech": 7002,
      "ndosi": 7003,
      "inguni": 7004,
      "kipir": 7005,
      "kiplembech": 7006,
      "kipkosobei": 7007,
      "igiil": 7008,
      "obegu": 7009,
      "karata": 7010,
      "alel": 7011,
      "koser": 7012,
      "kagonam": 7013,
      "kerti": 7014,
      "kaine": 7015,
      "kaimut": 7016,
      "kimwochi": 7017,
      "oonjo": 7018,
      "Koit": 7019,
      "indanyi": 7020,
      "siro": 7021,
      "keeweet": 7022,
      "ketinye": 7023,
      "Amos": 7024,
      "kagosich": 7025,
      "imach": 7026,
      "imandanyu": 7027,
      "amitwakik": 7028,
      "sobo": 7029,
      "kwanget": 7030,
      "bandap": 7031,
      "metoi": 7032,
      "maguutik": 7033,
      "meat": 7034,
      "achen": 7035,
      "kosiirtoe": 7036,
      "mbareennyi": 7037,
      "aikaet": 7038,
      "asich": 7039,
      "kwaninyu": 7040,
      "walei": 7041,
      "poortang": 7042,
      "sigaret": 7043,
      "iibu": 7044,
      "yaityennywa": 7045,
      "Ogoochi": 7046,
      "oshe": 7047,
      "yachigei": 7048,
      "tupchennyo": 7049,
      "Shelah": 7050,
      "kityok": 7051,
      "eriah": 7052,
      "Ingob": 7053,
      "echerok": 7054,
      "maotyo": 7055,
      "lewenishet": 7056,
      "anyinyen": 7057,
      "kiting": 7058,
      "ekalit": 7059,
      "kiboitinigap": 7060,
      "korooronindo": 7061,
      "polateet": 7062,
      "polatetap": 7063,
      "sikul": 7064,
      "kergeitu": 7065,
      "kererutap": 7066,
      "itonon": 7067,
      "kotig": 7068,
      "Igeere": 7069,
      "kuure": 7070,
      "saaennyu": 7071,
      "akubo": 7072,
      "menotik": 7073,
      "mastoi": 7074,
      "Kiptooo": 7075,
      "kiwotennyi": 7076,
      "kayooktoi": 7077,
      "lolei": 7078,
      "lenjin": 7079,
      "chepyoso": 7080,
      "rapisyek": 7081,
      "kiyagiik": 7082,
      "Kasarta": 7083,
      "Barak": 7084,
      "talas": 7085,
      "iguitos": 7086,
      "aipchi": 7087,
      "kabwaatutikyuk": 7088,
      "tienwogik": 7089,
      "kelegap": 7090,
      "rireeneng": 7091,
      "njirenik": 7092,
      "aketugul": 7093,
      "unennywa": 7094,
      "Perisik": 7095,
      "kakwautyet": 7096,
      "ofis": 7097,
      "nyalildanywa": 7098,
      "kebebaikwak": 7099,
      "frets": 7100,
      "chuulaat": 7101,
      "keldebes": 7102,
      "parbaryat": 7103,
      "Nyoljin": 7104,
      "laitoryandennyi": 7105,
      "lumeiywegap": 7106,
      "koroyooto": 7107,
      "chakchinet": 7108,
      "kararanitu": 7109,
      "chelos": 7110,
      "Nabot": 7111,
      "Nabal": 7112,
      "suumeekyik": 7113,
      "klasit": 7114,
      "sukaruk": 7115,
      "kolilaanso": 7116,
      "myando": 7117,
      "Yufrets": 7118,
      "koboisyeiwo": 7119,
      "kimurtoiyot": 7120,
      "Australia": 7121,
      "oiyondit": 7122,
      "kibanania": 7123,
      "Rashid": 7124,
      "Baringo": 7125,
      "Ithamar": 7126,
      "?\"": 7127,
      "Ateb": 7128,
      "Bas": 7129,
      "Eden": 7130,
      "Hos": 7131,
      "Hibik": 7132,
      "Indoi": 7133,
      "Kem": 7134,
      "Lakwet": 7135,
      "Mati": 7136,
      "Mamiten": 7137,
      "Nine": 7138,
      "Nadap": 7139,
      "Onam": 7140,
      "Otinye": 7141,
      "Ogoitoi": 7142,
      "Pas": 7143,
      "Sel": 7144,
      "Sukul": 7145,
      "Soman": 7146,
      "Tem": 7147,
      "awol": 7148,
      "ban": 7149,
      "fc": 7150,
      "ipo": 7151,
      "kristo": 7152,
      "lia": 7153,
      "mye": 7154,
      "nii": 7155,
      "rak": 7156,
      "ren": 7157,
      "sennyu": 7158,
      "soti": 7159,
      "unee": 7160,
      "veh": 7161,
      "yige": 7162,
      "kokas": 7163,
      "kokon": 7164,
      "konereechi": 7165,
      "nger": 7166,
      "ngem": 7167,
      "kiuu": 7168,
      "kial": 7169,
      "kitap": 7170,
      "kicham": 7171,
      "kikai": 7172,
      "kisa": 7173,
      "kitok": 7174,
      "kinik": 7175,
      "kileet": 7176,
      "kiboisien": 7177,
      "nyoi": 7178,
      "nywan": 7179,
      "tany": 7180,
      "ches": 7181,
      "toin": 7182,
      "tochi": 7183,
      "amete": 7184,
      "ein": 7185,
      "anat": 7186,
      "anjin": 7187,
      "ora": 7188,
      "isiche": 7189,
      "atyen": 7190,
      "les": 7191,
      "taitab": 7192,
      "Kimu": 7193,
      "unat": 7194,
      "abeere": 7195,
      "mayowe": 7196,
      "otebee": 7197,
      "otyen": 7198,
      "otinyei": 7199,
      "siche": 7200,
      "oorwo": 7201,
      "kobag": 7202,
      "kobat": 7203,
      "asomani": 7204,
      "boishe": 7205,
      "kepir": 7206,
      "kewanin": 7207,
      "osiir": 7208,
      "yeking": 7209,
      "eena": 7210,
      "kaha": 7211,
      "kataba": 7212,
      "kaanyooru": 7213,
      "toriti": 7214,
      "omii": 7215,
      "oling": 7216,
      "ololi": 7217,
      "esto": 7218,
      "kombet": 7219,
      "imee": 7220,
      "ilan": 7221,
      "koroti": 7222,
      "koryotiin": 7223,
      "olen": 7224,
      "kogir": 7225,
      "inyiit": 7226,
      "inyete": 7227,
      "kwani": 7228,
      "kipi": 7229,
      "kipchei": 7230,
      "iget": 7231,
      "igoo": 7232,
      "karoon": 7233,
      "moetap": 7234,
      "moennyi": 7235,
      "kosik": 7236,
      "koseer": 7237,
      "kagu": 7238,
      "kongering": 7239,
      "kongelelji": 7240,
      "kibang": 7241,
      "kibwaati": 7242,
      "kiburukto": 7243,
      "otonon": 7244,
      "iywok": 7245,
      "iyoni": 7246,
      "kerei": 7247,
      "kerwetap": 7248,
      "konamei": 7249,
      "chutok": 7250,
      "itopel": 7251,
      "ogoochini": 7252,
      "tuguukyuk": 7253,
      "parwa": 7254,
      "iner": 7255,
      "ketup": 7256,
      "chepcheb": 7257,
      "jinet": 7258,
      "murwong": 7259,
      "kagoito": 7260,
      "kwenutab": 7261,
      "kapwatutik": 7262,
      "kitit": 7263,
      "kitebi": 7264,
      "kolany": 7265,
      "pichuuto": 7266,
      "pikipi": 7267,
      "kalila": 7268,
      "ataak": 7269,
      "koyaiywo": 7270,
      "ngoro": 7271,
      "amitwogikyik": 7272,
      "amitwogikwak": 7273,
      "pororyosyechu": 7274,
      "kilgei": 7275,
      "kesap": 7276,
      "komwachin": 7277,
      "keetichooto": 7278,
      "tarasa": 7279,
      "sigis": 7280,
      "aleekwok": 7281,
      "robiinik": 7282,
      "yugo": 7283,
      "tengektong": 7284,
      "tengektonyu": 7285,
      "segem": 7286,
      "unye": 7287,
      "togosu": 7288,
      "kitam": 7289,
      "tabaani": 7290,
      "kosirtoi": 7291,
      "tupcheng": 7292,
      "keeldo": 7293,
      "diah": 7294,
      "mwaitoi": 7295,
      "kurgat": 7296,
      "weegun": 7297,
      "utaatyetap": 7298,
      "Ingog": 7299,
      "otwogindonooto": 7300,
      "itaach": 7301,
      "maoteni": 7302,
      "korotiikwak": 7303,
      "maket": 7304,
      "noee": 7305,
      "keniisyet": 7306,
      "kaating": 7307,
      "garisyek": 7308,
      "kanetishet": 7309,
      "Ahitopel": 7310,
      "konyekwok": 7311,
      "unotkei": 7312,
      "kitabusiek": 7313,
      "puunikyok": 7314,
      "kitou": 7315,
      "igoi": 7316,
      "chooruge": 7317,
      "Eliap": 7318,
      "chutei": 7319,
      "Epheso": 7320,
      "kotuge": 7321,
      "kergeindap": 7322,
      "Karon": 7323,
      "metowegap": 7324,
      "Nyig": 7325,
      "betusie": 7326,
      "sigiryennyi": 7327,
      "Kiker": 7328,
      "kweyonik": 7329,
      "kimuti": 7330,
      "Kesir": 7331,
      "kagogas": 7332,
      "kagogeer": 7333,
      "auyo": 7334,
      "nereeknateet": 7335,
      "koyumjigei": 7336,
      "aipai": 7337,
      "atindiot": 7338,
      "Naet": 7339,
      "kirwoogutikyik": 7340,
      "poipoyet": 7341,
      "Obadiah": 7342,
      "ineeta": 7343,
      "momii": 7344,
      "wonindo": 7345,
      "Peres": 7346,
      "kotareti": 7347,
      "Nyoonei": 7348,
      "ngomnotet": 7349,
      "Ashdod": 7350,
      "ariiree": 7351,
      "Gerson": 7352,
      "tutikin": 7353,
      "ayookwok": 7354,
      "olegiamishen": 7355,
      "tumdum": 7356,
      "Tuguk": 7357,
      "betushe": 7358,
      "Komwachi": 7359,
      "omande": 7360,
      "usindet": 7361,
      "Kibarei": 7362,
      "igeesugei": 7363,
      "wisis": 7364,
      "kwerie": 7365,
      "kenyitab": 7366,
      "osapche": 7367,
      "karaaranindap": 7368,
      "punootyot": 7369,
      "koobeesyo": 7370,
      "kotonaton": 7371,
      "mororo": 7372,
      "Ethio": 7373,
      "akwaen": 7374,
      "rwandosyek": 7375,
      "ripotit": 7376,
      "maraneet": 7377,
      "murenjoto": 7378,
      "kibugandinik": 7379,
      "ayoogu": 7380,
      "jubilii": 7381,
      "Gaza": 7382,
      "sendimita": 7383,
      "Aikam": 7384,
      "oratinweek": 7385,
      "kayooktoindet": 7386,
      "Nineveh": 7387,
      "katabaanet": 7388,
      "murwongei": 7389,
      "Cyr": 7390,
      "Iyan": 7391,
      "Kiir": 7392,
      "Mye": 7393,
      "Mem": 7394,
      "Meg": 7395,
      "Mikal": 7396,
      "Mwoe": 7397,
      "Mpiret": 7398,
      "Mongen": 7399,
      "Notok": 7400,
      "Peet": 7401,
      "Pos": 7402,
      "Poiboen": 7403,
      "Rir": 7404,
      "Riibei": 7405,
      "Siba": 7406,
      "Tok": 7407,
      "Tono": 7408,
      "Tebyei": 7409,
      "Zo": 7410,
      "awa": 7411,
      "awek": 7412,
      "atoroor": 7413,
      "biich": 7414,
      "gen": 7415,
      "goti": 7416,
      "he": 7417,
      "hu": 7418,
      "inyi": 7419,
      "jwet": 7420,
      "jum": 7421,
      "mw": 7422,
      "mok": 7423,
      "oweek": 7424,
      "oneet": 7425,
      "pananda": 7426,
      "roor": 7427,
      "sama": 7428,
      "star": 7429,
      "uek": 7430,
      "koei": 7431,
      "kous": 7432,
      "kotui": 7433,
      "kochini": 7434,
      "koweech": 7435,
      "ngeg": 7436,
      "neko": 7437,
      "nendet": 7438,
      "nemining": 7439,
      "kiyat": 7440,
      "kisom": 7441,
      "kiwendi": 7442,
      "kimong": 7443,
      "nyoror": 7444,
      "aktoi": 7445,
      "chekiki": 7446,
      "chemiten": 7447,
      "oochooto": 7448,
      "tochigei": 7449,
      "orng": 7450,
      "orir": 7451,
      "orani": 7452,
      "aini": 7453,
      "atip": 7454,
      "atkinye": 7455,
      "lebel": 7456,
      "lekonik": 7457,
      "ineti": 7458,
      "arir": 7459,
      "arib": 7460,
      "taim": 7461,
      "uuindap": 7462,
      "poishet": 7463,
      "Kila": 7464,
      "Kitoret": 7465,
      "Kitestai": 7466,
      "wou": 7467,
      "unit": 7468,
      "abati": 7469,
      "machame": 7470,
      "maywek": 7471,
      "itech": 7472,
      "alik": 7473,
      "kobaishe": 7474,
      "asub": 7475,
      "kenem": 7476,
      "tigong": 7477,
      "anget": 7478,
      "kaageer": 7479,
      "kayos": 7480,
      "oktoi": 7481,
      "estai": 7482,
      "ira": 7483,
      "irue": 7484,
      "komp": 7485,
      "komeei": 7486,
      "komomi": 7487,
      "oitu": 7488,
      "ilgei": 7489,
      "ngokaik": 7490,
      "ibune": 7491,
      "kotelel": 7492,
      "kwam": 7493,
      "weeri": 7494,
      "ingwek": 7495,
      "igen": 7496,
      "igaigai": 7497,
      "chamyennyi": 7498,
      "kosomani": 7499,
      "kageer": 7500,
      "kaging": 7501,
      "kaginde": 7502,
      "udan": 7503,
      "kibel": 7504,
      "weektagei": 7505,
      "unennyu": 7506,
      "keryosyek": 7507,
      "wetei": 7508,
      "kirate": 7509,
      "kiroong": 7510,
      "kamer": 7511,
      "temu": 7512,
      "teget": 7513,
      "kimwoe": 7514,
      "Chero": 7515,
      "porto": 7516,
      "komaas": 7517,
      "ketil": 7518,
      "ketonon": 7519,
      "chepkes": 7520,
      "chepter": 7521,
      "tilyandit": 7522,
      "lakini": 7523,
      "pandanyi": 7524,
      "paoryan": 7525,
      "pandanywa": 7526,
      "kapchi": 7527,
      "imandap": 7528,
      "imaoten": 7529,
      "kana": 7530,
      "koloo": 7531,
      "lugosyegap": 7532,
      "naetap": 7533,
      "iisyo": 7534,
      "iitoksei": 7535,
      "dochi": 7536,
      "atat": 7537,
      "akoy": 7538,
      "peetuusyekwak": 7539,
      "serekalit": 7540,
      "edom": 7541,
      "mbareeng": 7542,
      "koyam": 7543,
      "asigar": 7544,
      "kilasit": 7545,
      "toroornatennyu": 7546,
      "walitap": 7547,
      "pirei": 7548,
      "kounda": 7549,
      "poorwekwak": 7550,
      "Ogat": 7551,
      "kwanisyekyuk": 7552,
      "kiboisyechin": 7553,
      "nengei": 7554,
      "konyitot": 7555,
      "Kabar": 7556,
      "weeriikwok": 7557,
      "kanamwetap": 7558,
      "tupchet": 7559,
      "atebeetap": 7560,
      "chetinye": 7561,
      "tiptemu": 7562,
      "maotigap": 7563,
      "arue": 7564,
      "amutwak": 7565,
      "iyotennywa": 7566,
      "iniguk": 7567,
      "ateebee": 7568,
      "irimoiguk": 7569,
      "kinto": 7570,
      "kinai": 7571,
      "kabatindet": 7572,
      "Anti": 7573,
      "oldinwek": 7574,
      "murenonooto": 7575,
      "keechiirekyuk": 7576,
      "tetutik": 7577,
      "tetuutigap": 7578,
      "Kimiten": 7579,
      "yiemei": 7580,
      "isubu": 7581,
      "isubwo": 7582,
      "igoorwek": 7583,
      "kibare": 7584,
      "alali": 7585,
      "kemouni": 7586,
      "Boisie": 7587,
      "Chomei": 7588,
      "mamito": 7589,
      "kiptainikyik": 7590,
      "ruroteetap": 7591,
      "somane": 7592,
      "kibirei": 7593,
      "okweeget": 7594,
      "ibare": 7595,
      "kerubik": 7596,
      "kotaret": 7597,
      "ititaatiin": 7598,
      "aguurin": 7599,
      "Mamie": 7600,
      "kamuktaindet": 7601,
      "Mesto": 7602,
      "bunik": 7603,
      "peeguk": 7604,
      "luulei": 7605,
      "tutigin": 7606,
      "nyigiisindanyi": 7607,
      "rangik": 7608,
      "Shimri": 7609,
      "kooluu": 7610,
      "konaak": 7611,
      "kosiisyo": 7612,
      "rupit": 7613,
      "kaarorta": 7614,
      "Kainetap": 7615,
      "tweguunetap": 7616,
      "kobendatee": 7617,
      "soomutik": 7618,
      "Lagok": 7619,
      "Yetindet": 7620,
      "tuukwak": 7621,
      "aresiek": 7622,
      "telev": 7623,
      "Sukot": 7624,
      "imaasat": 7625,
      "elyebwekwak": 7626,
      "Nahor": 7627,
      "Ohol": 7628,
      "segemik": 7629,
      "Anato": 7630,
      "Asome": 7631,
      "Bor": 7632,
      "Ges": 7633,
      "Hitindet": 7634,
      "Iwendi": 7635,
      "Kwan": 7636,
      "Kenet": 7637,
      "Lu": 7638,
      "Man": 7639,
      "Menyei": 7640,
      "Manoa": 7641,
      "Nakuru": 7642,
      "Punu": 7643,
      "Sur": 7644,
      "Tam": 7645,
      "Tek": 7646,
      "Wee": 7647,
      "Wis": 7648,
      "aweek": 7649,
      "anereech": 7650,
      "bwat": 7651,
      "co": 7652,
      "iuu": 7653,
      "iung": 7654,
      "lin": 7655,
      "log": 7656,
      "lagat": 7657,
      "myei": 7658,
      "myani": 7659,
      "nok": 7660,
      "okil": 7661,
      "ochop": 7662,
      "oaragense": 7663,
      "pal": 7664,
      "paibait": 7665,
      "ran": 7666,
      "sosyek": 7667,
      "sengwet": 7668,
      "sup": 7669,
      "kokoch": 7670,
      "kokany": 7671,
      "ngoli": 7672,
      "eta": 7673,
      "etat": 7674,
      "nekiki": 7675,
      "kiyomis": 7676,
      "kichob": 7677,
      "kichoor": 7678,
      "kilen": 7679,
      "kichoortagei": 7680,
      "akach": 7681,
      "akase": 7682,
      "chemog": 7683,
      "chelelach": 7684,
      "ndoni": 7685,
      "iiy": 7686,
      "amik": 7687,
      "amisyet": 7688,
      "amda": 7689,
      "amoiywei": 7690,
      "anoto": 7691,
      "agik": 7692,
      "ndetab": 7693,
      "isoop": 7694,
      "iname": 7695,
      "arim": 7696,
      "enoto": 7697,
      "enagei": 7698,
      "uuti": 7699,
      "poisye": 7700,
      "Kia": 7701,
      "Kirir": 7702,
      "abin": 7703,
      "abia": 7704,
      "abwoti": 7705,
      "many": 7706,
      "manyor": 7707,
      "eetab": 7708,
      "otii": 7709,
      "alti": 7710,
      "kobel": 7711,
      "koboru": 7712,
      "kobiyo": 7713,
      "kobistoe": 7714,
      "musong": 7715,
      "askei": 7716,
      "bogol": 7717,
      "kesi": 7718,
      "keya": 7719,
      "kekol": 7720,
      "kemwaita": 7721,
      "kecheng": 7722,
      "kewiirchi": 7723,
      "kenyochi": 7724,
      "oskei": 7725,
      "timin": 7726,
      "tigik": 7727,
      "mile": 7728,
      "emin": 7729,
      "emosto": 7730,
      "ichegei": 7731,
      "katuiyo": 7732,
      "omen": 7733,
      "olda": 7734,
      "esei": 7735,
      "komwaiwech": 7736,
      "chiil": 7737,
      "korwooch": 7738,
      "urun": 7739,
      "kogonor": 7740,
      "ibuu": 7741,
      "ibeete": 7742,
      "ahel": 7743,
      "kotwek": 7744,
      "koteekyi": 7745,
      "ingelelji": 7746,
      "kipa": 7747,
      "kiplekonik": 7748,
      "igail": 7749,
      "syekyuk": 7750,
      "kariisyegap": 7751,
      "chamet": 7752,
      "chamegei": 7753,
      "ndaet": 7754,
      "kigeng": 7755,
      "kigai": 7756,
      "tisii": 7757,
      "nyoetap": 7758,
      "isiei": 7759,
      "kastoi": 7760,
      "kenyoor": 7761,
      "kaimwa": 7762,
      "kaitang": 7763,
      "kirwo": 7764,
      "kirwa": 7765,
      "kamag": 7766,
      "kimni": 7767,
      "kimiten": 7768,
      "Chem": 7769,
      "Chiito": 7770,
      "kabus": 7771,
      "paregei": 7772,
      "indennywa": 7773,
      "inekei": 7774,
      "onge": 7775,
      "iinikyik": 7776,
      "aengu": 7777,
      "ketiik": 7778,
      "kukeny": 7779,
      "chogu": 7780,
      "chobo": 7781,
      "kitye": 7782,
      "koitap": 7783,
      "Abigail": 7784,
      "kebor": 7785,
      "metet": 7786,
      "metinye": 7787,
      "mageng": 7788,
      "dogei": 7789,
      "alaalwok": 7790,
      "peetuusyekwok": 7791,
      "chore": 7792,
      "choron": 7793,
      "lakweny": 7794,
      "lakwenyu": 7795,
      "ilewen": 7796,
      "indochin": 7797,
      "echoto": 7798,
      "kelyen": 7799,
      "kwanit": 7800,
      "kebebertab": 7801,
      "sigeet": 7802,
      "yaityeng": 7803,
      "Asahel": 7804,
      "oshiek": 7805,
      "tononchini": 7806,
      "wotyini": 7807,
      "temeet": 7808,
      "piitos": 7809,
      "kiptaiyannywa": 7810,
      "ureryet": 7811,
      "Shem": 7812,
      "puunigap": 7813,
      "Sifi": 7814,
      "ibutos": 7815,
      "keechiireguk": 7816,
      "atebet": 7817,
      "ingog": 7818,
      "yaaksei": 7819,
      "cheterter": 7820,
      "maimu": 7821,
      "tumdoi": 7822,
      "eunekyok": 7823,
      "lapke": 7824,
      "choboot": 7825,
      "wanitu": 7826,
      "emotinwekwak": 7827,
      "kotou": 7828,
      "kotoben": 7829,
      "Cheeng": 7830,
      "imugaksei": 7831,
      "lakwetab": 7832,
      "wiirta": 7833,
      "kitabush": 7834,
      "benkit": 7835,
      "kayomisetap": 7836,
      "kotur": 7837,
      "Amasa": 7838,
      "kebegu": 7839,
      "tiibiikwok": 7840,
      "polis": 7841,
      "koroomnatetap": 7842,
      "koboibo": 7843,
      "kooriikyik": 7844,
      "chechwaak": 7845,
      "saruunet": 7846,
      "kiimuch": 7847,
      "yamyotiin": 7848,
      "teegista": 7849,
      "Kibut": 7850,
      "kolaakyi": 7851,
      "bolik": 7852,
      "sabatoisyek": 7853,
      "melektap": 7854,
      "Hekaluutap": 7855,
      "kagogeskei": 7856,
      "eleet": 7857,
      "iberuurot": 7858,
      "kimandoe": 7859,
      "atuutyennyi": 7860,
      "kobogoryondonooto": 7861,
      "nyikanet": 7862,
      "riirekyuk": 7863,
      "aliah": 7864,
      "inyochi": 7865,
      "mornennyi": 7866,
      "nenyone": 7867,
      "ngelelnateet": 7868,
      "imbaret": 7869,
      "kibaoryan": 7870,
      "talaen": 7871,
      "Hasor": 7872,
      "kaitityet": 7873,
      "bunji": 7874,
      "sasishet": 7875,
      "langok": 7876,
      "iriiree": 7877,
      "nyasutikab": 7878,
      "mauche": 7879,
      "chepkichutinnyi": 7880,
      "toorei": 7881,
      "oogis": 7882,
      "Amwaun": 7883,
      "erenook": 7884,
      "Hesron": 7885,
      "itogung": 7886,
      "kenetkei": 7887,
      "koolei": 7888,
      "kobwonjin": 7889,
      "warengetap": 7890,
      "Mombasa": 7891,
      "rebiik": 7892,
      "tongoanik": 7893,
      "kibugandet": 7894,
      "kaptisisyonooto": 7895,
      "Keila": 7896,
      "kibagengeit": 7897,
      "kotiliilit": 7898,
      "katigonet": 7899,
      "Asera": 7900,
      "kabwotutik": 7901,
      "Netania": 7902,
      "mashinit": 7903,
      "Sisera": 7904,
      "yaaktaetap": 7905,
      "kergeindonywa": 7906,
      "otogoste": 7907,
      "Athaliah": 7908,
      "kalyeleet": 7909,
      "shidet": 7910,
      "kaimetapkei": 7911,
      "soromok": 7912,
      "Omri": 7913,
      "betusiechu": 7914,
      "Cyrus": 7915,
      "nyororosyek": 7916,
      "lebeleen": 7917,
      "kompyu": 7918,
      "Antiok": 7919,
      "Sukoth": 7920,
      "Sifichi": 7921,
      "And": 7922,
      "Ale": 7923,
      "Abar": 7924,
      "Akoi": 7925,
      "Anyoon": 7926,
      "Hagar": 7927,
      "Jok": 7928,
      "Kat": 7929,
      "Kya": 7930,
      "Keb": 7931,
      "Kiip": 7932,
      "Logo": 7933,
      "Mesh": 7934,
      "Pi": 7935,
      "Pik": 7936,
      "Pat": 7937,
      "Pir": 7938,
      "Rah": 7939,
      "Rimon": 7940,
      "Sa": 7941,
      "Seba": 7942,
      "Tur": 7943,
      "Tup": 7944,
      "Week": 7945,
      "aung": 7946,
      "afrika": 7947,
      "bah": 7948,
      "buny": 7949,
      "dan": 7950,
      "din": 7951,
      "dong": 7952,
      "endoi": 7953,
      "ian": 7954,
      "iyay": 7955,
      "iarorchi": 7956,
      "ky": 7957,
      "maran": 7958,
      "mwechin": 7959,
      "ochooto": 7960,
      "pei": 7961,
      "paibaitune": 7962,
      "pamb": 7963,
      "rootei": 7964,
      "segei": 7965,
      "upi": 7966,
      "koet": 7967,
      "koung": 7968,
      "koaror": 7969,
      "kowendote": 7970,
      "ngi": 7971,
      "chol": 7972,
      "chong": 7973,
      "nel": 7974,
      "kieet": 7975,
      "kindo": 7976,
      "kitinyei": 7977,
      "kimuch": 7978,
      "kiyaa": 7979,
      "kichilil": 7980,
      "kikwer": 7981,
      "chegei": 7982,
      "cheso": 7983,
      "ndanooto": 7984,
      "iitoi": 7985,
      "amotigap": 7986,
      "ekchi": 7987,
      "tulo": 7988,
      "tutegen": 7989,
      "apa": 7990,
      "oranooto": 7991,
      "air": 7992,
      "aigei": 7993,
      "iseer": 7994,
      "ating": 7995,
      "lewan": 7996,
      "amuuch": 7997,
      "arar": 7998,
      "ariibe": 7999,
      "uule": 8000,
      "ityo": 8001,
      "sitab": 8002,
      "askar": 8003,
      "chiton": 8004,
      "kemu": 8005,
      "keyay": 8006,
      "yenyu": 8007,
      "yenyo": 8008,
      "mindet": 8009,
      "miat": 8010,
      "emennyo": 8011,
      "yokwo": 8012,
      "eennyo": 8013,
      "kalenjin": 8014,
      "toriiti": 8015,
      "omer": 8016,
      "omwaiwo": 8017,
      "omitwogik": 8018,
      "elik": 8019,
      "olji": 8020,
      "okwek": 8021,
      "okwong": 8022,
      "irwoochi": 8023,
      "oibu": 8024,
      "iitiik": 8025,
      "ililandos": 8026,
      "korek": 8027,
      "korebe": 8028,
      "uruu": 8029,
      "ibookyi": 8030,
      "koteb": 8031,
      "nyumb": 8032,
      "ingung": 8033,
      "ingweek": 8034,
      "ingereza": 8035,
      "kipe": 8036,
      "kipkorat": 8037,
      "kiptayat": 8038,
      "Isub": 8039,
      "igim": 8040,
      "obun": 8041,
      "chamcham": 8042,
      "chamdaat": 8043,
      "kigarta": 8044,
      "mwaa": 8045,
      "mwachini": 8046,
      "kasyi": 8047,
      "keriip": 8048,
      "kereri": 8049,
      "kenyinooto": 8050,
      "kenyisyechu": 8051,
      "kenyeleet": 8052,
      "kiyon": 8053,
      "kirokweek": 8054,
      "kameng": 8055,
      "kimen": 8056,
      "China": 8057,
      "kabarta": 8058,
      "Komut": 8059,
      "siruutyet": 8060,
      "osyekwok": 8061,
      "onget": 8062,
      "konyun": 8063,
      "alake": 8064,
      "cheptuget": 8065,
      "lachen": 8066,
      "Amet": 8067,
      "Amonik": 8068,
      "Ameg": 8069,
      "choe": 8070,
      "ndeget": 8071,
      "pandang": 8072,
      "kapkelyen": 8073,
      "kiteb": 8074,
      "aitinik": 8075,
      "koiyai": 8076,
      "kolasu": 8077,
      "komoswegap": 8078,
      "amitwagik": 8079,
      "umde": 8080,
      "bata": 8081,
      "baor": 8082,
      "koboisye": 8083,
      "kebun": 8084,
      "name": 8085,
      "meg": 8086,
      "sautik": 8087,
      "alaalet": 8088,
      "poisyonooto": 8089,
      "ngoritap": 8090,
      "kosiiro": 8091,
      "pororyosyegap": 8092,
      "ngotko": 8093,
      "Aro": 8094,
      "asima": 8095,
      "eiywegap": 8096,
      "komwaun": 8097,
      "kochuul": 8098,
      "the": 8099,
      "kisasei": 8100,
      "matyanit": 8101,
      "Elah": 8102,
      "yundo": 8103,
      "kate": 8104,
      "rirosyek": 8105,
      "kokwenyu": 8106,
      "Nepo": 8107,
      "oriitinnyi": 8108,
      "marakwek": 8109,
      "rotweet": 8110,
      "Kawo": 8111,
      "kitany": 8112,
      "sobetab": 8113,
      "sobenyi": 8114,
      "kosirchi": 8115,
      "keeldong": 8116,
      "tupchosyegap": 8117,
      "gororon": 8118,
      "yaakyi": 8119,
      "yaaktoi": 8120,
      "kotesyi": 8121,
      "riiregap": 8122,
      "cheptonyu": 8123,
      "kandoiten": 8124,
      "logoekwak": 8125,
      "kiptaiyandennyo": 8126,
      "Kororon": 8127,
      "iywein": 8128,
      "kaatinnyi": 8129,
      "kanetishiet": 8130,
      "Ibei": 8131,
      "alaaljigei": 8132,
      "kinton": 8133,
      "komutwaa": 8134,
      "Ahimelek": 8135,
      "kokwe": 8136,
      "ayani": 8137,
      "kayomisennyi": 8138,
      "kebend": 8139,
      "polisiek": 8140,
      "kitue": 8141,
      "Kobun": 8142,
      "laitorinikwak": 8143,
      "bukuinooto": 8144,
      "saaetap": 8145,
      "Nyal": 8146,
      "orore": 8147,
      "kinamei": 8148,
      "usoonaik": 8149,
      "nyoorwo": 8150,
      "nyonji": 8151,
      "kolach": 8152,
      "panyechooto": 8153,
      "notee": 8154,
      "Kechop": 8155,
      "onamge": 8156,
      "yemei": 8157,
      "Jehoas": 8158,
      "Baalik": 8159,
      "kimutyi": 8160,
      "kumik": 8161,
      "kagesunat": 8162,
      "mengichigap": 8163,
      "uruukso": 8164,
      "sokseet": 8165,
      "iguiye": 8166,
      "ripset": 8167,
      "asike": 8168,
      "tungu": 8169,
      "akine": 8170,
      "betusiekab": 8171,
      "chalwogik": 8172,
      "mornet": 8173,
      "unenok": 8174,
      "momuuchi": 8175,
      "ngelelik": 8176,
      "ngelelyot": 8177,
      "Jearim": 8178,
      "inyalili": 8179,
      "igonoor": 8180,
      "kiibwat": 8181,
      "tamboiyot": 8182,
      "kanyoiset": 8183,
      "ngalechu": 8184,
      "liilindo": 8185,
      "oleginyo": 8186,
      "wirta": 8187,
      "pendote": 8188,
      "taapt": 8189,
      "iimgei": 8190,
      "siisei": 8191,
      "kondochi": 8192,
      "Horeb": 8193,
      "nyeraat": 8194,
      "chigil": 8195,
      "ketubosyek": 8196,
      "pukuisyek": 8197,
      "Eliasib": 8198,
      "Urerietab": 8199,
      "afisa": 8200,
      "simoit": 8201,
      "chepkulet": 8202,
      "Jeiso": 8203,
      "kerkeindo": 8204,
      "naaryeet": 8205,
      "Mutai": 8206,
      "kitogostoe": 8207,
      "Punjin": 8208,
      "tugatugigap": 8209,
      "Tirzah": 8210,
      "kayumetapkei": 8211,
      "kimonjororinik": 8212,
      "Naaman": 8213,
      "paragunnywa": 8214,
      "kongeringitu": 8215,
      "mororochik": 8216,
      "Post": 8217,
      "cheptereni": 8218,
      ",)": 8219,
      "Ata": 8220,
      "Angot": 8221,
      "Ayani": 8222,
      "Amog": 8223,
      "Betu": 8224,
      "Er": 8225,
      "Eber": 8226,
      "Ge": 8227,
      "Het": 8228,
      "Imuch": 8229,
      "Iywei": 8230,
      "Mel": 8231,
      "Meph": 8232,
      "Miri": 8233,
      "Mutyo": 8234,
      "Oyai": 8235,
      "Pwoonei": 8236,
      "Siir": 8237,
      "Saru": 8238,
      "Ter": 8239,
      "Tog": 8240,
      "Tonon": 8241,
      "Wechei": 8242,
      "awet": 8243,
      "atos": 8244,
      "awong": 8245,
      "aoone": 8246,
      "awendotee": 8247,
      "butik": 8248,
      "don": 8249,
      "doret": 8250,
      "esio": 8251,
      "iuny": 8252,
      "iwiir": 8253,
      "jii": 8254,
      "lorit": 8255,
      "morik": 8256,
      "nta": 8257,
      "nui": 8258,
      "oguur": 8259,
      "otoret": 8260,
      "oweege": 8261,
      "pchi": 8262,
      "putei": 8263,
      "rea": 8264,
      "syo": 8265,
      "sake": 8266,
      "sastaet": 8267,
      "uma": 8268,
      "uit": 8269,
      "unyi": 8270,
      "wiy": 8271,
      "yri": 8272,
      "kone": 8273,
      "koame": 8274,
      "kouni": 8275,
      "koeei": 8276,
      "kourereni": 8277,
      "kowendot": 8278,
      "ngeb": 8279,
      "chiik": 8280,
      "choorugei": 8281,
      "etik": 8282,
      "nera": 8283,
      "kicheeng": 8284,
      "kioldo": 8285,
      "kiwalak": 8286,
      "tat": 8287,
      "tagu": 8288,
      "taishek": 8289,
      "ndar": 8290,
      "ndennyo": 8291,
      "ndaret": 8292,
      "iiyo": 8293,
      "tow": 8294,
      "amoyai": 8295,
      "ikas": 8296,
      "ikwok": 8297,
      "ikweng": 8298,
      "anaik": 8299,
      "agere": 8300,
      "tuyo": 8301,
      "tuleet": 8302,
      "isabe": 8303,
      "atennywa": 8304,
      "atiliil": 8305,
      "atyech": 8306,
      "legit": 8307,
      "aretab": 8308,
      "ent": 8309,
      "Kiya": 8310,
      "Kinyoru": 8311,
      "Kimoche": 8312,
      "wonooto": 8313,
      "abkei": 8314,
      "abune": 8315,
      "ityet": 8316,
      "itep": 8317,
      "erit": 8318,
      "erna": 8319,
      "sipta": 8320,
      "sindan": 8321,
      "chitukul": 8322,
      "agoitoi": 8323,
      "anyit": 8324,
      "anyon": 8325,
      "bos": 8326,
      "boto": 8327,
      "kegu": 8328,
      "kesei": 8329,
      "osun": 8330,
      "yaam": 8331,
      "emisyei": 8332,
      "yetunetap": 8333,
      "kaar": 8334,
      "katabaa": 8335,
      "elipu": 8336,
      "oloto": 8337,
      "unge": 8338,
      "koman": 8339,
      "komwo": 8340,
      "komwechi": 8341,
      "imet": 8342,
      "imani": 8343,
      "iite": 8344,
      "korup": 8345,
      "olewen": 8346,
      "kogat": 8347,
      "kogoon": 8348,
      "kogimegitu": 8349,
      "ibat": 8350,
      "iben": 8351,
      "ibel": 8352,
      "ibwati": 8353,
      "wechu": 8354,
      "usiisyet": 8355,
      "nyumi": 8356,
      "iga": 8357,
      "oboni": 8358,
      "chaman": 8359,
      "uli": 8360,
      "moik": 8361,
      "kosei": 8362,
      "kosaru": 8363,
      "kageng": 8364,
      "kagei": 8365,
      "kagil": 8366,
      "kongasis": 8367,
      "kigeb": 8368,
      "kigase": 8369,
      "kigoono": 8370,
      "kigoonin": 8371,
      "weekyin": 8372,
      "weekyingei": 8373,
      "kaset": 8374,
      "kenyiisyegap": 8375,
      "itog": 8376,
      "kaiyai": 8377,
      "kirubei": 8378,
      "kamoche": 8379,
      "kimat": 8380,
      "Chito": 8381,
      "Chaang": 8382,
      "kabut": 8383,
      "Koyai": 8384,
      "pareet": 8385,
      "indos": 8386,
      "porie": 8387,
      "toiyet": 8388,
      "komandoi": 8389,
      "komaoten": 8390,
      "misiing": 8391,
      "istogei": 8392,
      "Amariah": 8393,
      "Amram": 8394,
      "Aminadab": 8395,
      "mutyon": 8396,
      "epchin": 8397,
      "kagonyo": 8398,
      "kagoyaak": 8399,
      "kagonyoor": 8400,
      "kapchii": 8401,
      "kiterteer": 8402,
      "tosyeguk": 8403,
      "kobaoryan": 8404,
      "neryoot": 8405,
      "kolus": 8406,
      "koliige": 8407,
      "kolipan": 8408,
      "kolooit": 8409,
      "ootetap": 8410,
      "yina": 8411,
      "magutik": 8412,
      "dosi": 8413,
      "sand": 8414,
      "kaliet": 8415,
      "alaalun": 8416,
      "alaaljini": 8417,
      "chorweetap": 8418,
      "poisyennyu": 8419,
      "keerindet": 8420,
      "kurait": 8421,
      "bika": 8422,
      "Misirindet": 8423,
      "moitap": 8424,
      "itub": 8425,
      "kesup": 8426,
      "kobare": 8427,
      "kisas": 8428,
      "gatok": 8429,
      "tereenigap": 8430,
      "ameg": 8431,
      "Asoomok": 8432,
      "tononet": 8433,
      "nyalildos": 8434,
      "petusyek": 8435,
      "kinyoorchi": 8436,
      "nengwai": 8437,
      "tupcheshek": 8438,
      "mangu": 8439,
      "Shabana": 8440,
      "keechiiregap": 8441,
      "yosyechi": 8442,
      "echeranooto": 8443,
      "Ageere": 8444,
      "saisyek": 8445,
      "Laitorani": 8446,
      "onaak": 8447,
      "kaatit": 8448,
      "garishek": 8449,
      "wanindap": 8450,
      "koroitap": 8451,
      "koteepse": 8452,
      "imuta": 8453,
      "kimnateennywa": 8454,
      "wiirtoi": 8455,
      "kaku": 8456,
      "rwaik": 8457,
      "paornateetap": 8458,
      "keelyekwok": 8459,
      "mogornatosyegap": 8460,
      "igomoik": 8461,
      "Kimwei": 8462,
      "kayomisutik": 8463,
      "kogoyai": 8464,
      "ezer": 8465,
      "chilile": 8466,
      "rireenosyeguk": 8467,
      "kereruut": 8468,
      "kotiegei": 8469,
      "lumeiywot": 8470,
      "kaboorun": 8471,
      "weret": 8472,
      "iyooktoi": 8473,
      "kimwaun": 8474,
      "chuboot": 8475,
      "kweanaik": 8476,
      "kalasunennyi": 8477,
      "koriirchin": 8478,
      "taagigap": 8479,
      "yayak": 8480,
      "Ongebe": 8481,
      "ribsetab": 8482,
      "Chepkoech": 8483,
      "teekyi": 8484,
      "tirook": 8485,
      "itoondo": 8486,
      "kiroktonyi": 8487,
      "nyoljino": 8488,
      "konyalun": 8489,
      "kosubkei": 8490,
      "kaneetisyosyekyik": 8491,
      "Kaperna": 8492,
      "kalewenoni": 8493,
      "iyasye": 8494,
      "koneeti": 8495,
      "leelachen": 8496,
      "koimenit": 8497,
      "tamirmirik": 8498,
      "tamirmiriet": 8499,
      "ibosheth": 8500,
      "kokaikai": 8501,
      "pagoiyot": 8502,
      "kebebaikyik": 8503,
      "koskoleng": 8504,
      "langat": 8505,
      "nyigiisindo": 8506,
      "kiyom": 8507,
      "lititindo": 8508,
      "toorook": 8509,
      "tigitik": 8510,
      "tugatuk": 8511,
      "Ilasu": 8512,
      "Icheeget": 8513,
      "ingotep": 8514,
      "kilomita": 8515,
      "kigombok": 8516,
      "muuswek": 8517,
      "Rabsake": 8518,
      "Riipkei": 8519,
      "nyerootiin": 8520,
      "kobendat": 8521,
      "The": 8522,
      "anyinyindo": 8523,
      "Kohatik": 8524,
      "Tesetai": 8525,
      "koisee": 8526,
      "kweinik": 8527,
      "kipsomaniat": 8528,
      "punyondennyu": 8529,
      "punyondeng": 8530,
      "ayachini": 8531,
      "kolandae": 8532,
      "matubar": 8533,
      "Aserik": 8534,
      "iilegei": 8535,
      "murwoonindo": 8536,
      "Eliakim": 8537,
      "karurugut": 8538,
      "ombenoti": 8539,
      "chepchepindo": 8540,
      "kiberuuri": 8541,
      "oriirye": 8542,
      "iyoogu": 8543,
      "chombilik": 8544,
      "chokchinee": 8545,
      "Elisama": 8546,
      "katerteeret": 8547,
      "Malkija": 8548,
      "Jepune": 8549,
      "talasyet": 8550,
      "kwaninyi": 8551,
      "kitamba": 8552,
      "samakinik": 8553,
      "Cherop": 8554,
      "kamagut": 8555,
      "meteteek": 8556,
      "toriitigap": 8557,
      "Aroer": 8558,
      "oleginyoen": 8559,
      "cheptereniot": 8560,
      "Mephibosheth": 8561,
      "neryootiin": 8562,
      "Kapernaum": 8563,
      "'!”": 8564,
      "At": 8565,
      "Ain": 8566,
      "Abed": 8567,
      "Gosh": 8568,
      "Geba": 8569,
      "Ido": 8570,
      "Jar": 8571,
      "Kur": 8572,
      "Kaal": 8573,
      "Konon": 8574,
      "Leen": 8575,
      "Lazar": 8576,
      "Mago": 8577,
      "Pegu": 8578,
      "Sem": 8579,
      "Sig": 8580,
      "Tai": 8581,
      "Tab": 8582,
      "aun": 8583,
      "ando": 8584,
      "aoon": 8585,
      "akil": 8586,
      "ayosye": 8587,
      "dai": 8588,
      "echu": 8589,
      "gr": 8590,
      "has": 8591,
      "iwek": 8592,
      "jon": 8593,
      "jesh": 8594,
      "kuutik": 8595,
      "lu": 8596,
      "mait": 8597,
      "mwechi": 8598,
      "nusu": 8599,
      "oen": 8600,
      "ogap": 8601,
      "owal": 8602,
      "oph": 8603,
      "otuiye": 8604,
      "rut": 8605,
      "rong": 8606,
      "ste": 8607,
      "tyanit": 8608,
      "twatei": 8609,
      "und": 8610,
      "unyu": 8611,
      "kotai": 8612,
      "kosip": 8613,
      "kowendoti": 8614,
      "ngam": 8615,
      "ngamu": 8616,
      "ngatu": 8617,
      "ngwan": 8618,
      "neyoe": 8619,
      "kius": 8620,
      "kikir": 8621,
      "kitoi": 8622,
      "kiku": 8623,
      "kiner": 8624,
      "kiwong": 8625,
      "kiyachi": 8626,
      "kiming": 8627,
      "kiuun": 8628,
      "nyoorchi": 8629,
      "nyanyek": 8630,
      "tach": 8631,
      "taek": 8632,
      "taser": 8633,
      "oole": 8634,
      "oobi": 8635,
      "iita": 8636,
      "amot": 8637,
      "ameiywei": 8638,
      "amwoun": 8639,
      "amwechini": 8640,
      "anta": 8641,
      "atyeni": 8642,
      "ateekyi": 8643,
      "inaga": 8644,
      "inatennyi": 8645,
      "aram": 8646,
      "arte": 8647,
      "ararai": 8648,
      "enjin": 8649,
      "Kiy": 8650,
      "Kigu": 8651,
      "Kiti": 8652,
      "Kinyo": 8653,
      "Kikir": 8654,
      "Kitil": 8655,
      "Kitet": 8656,
      "abuk": 8657,
      "abad": 8658,
      "makoi": 8659,
      "eetyeetap": 8660,
      "itiit": 8661,
      "otisyetap": 8662,
      "erat": 8663,
      "siko": 8664,
      "sima": 8665,
      "siget": 8666,
      "alyo": 8667,
      "kobwaati": 8668,
      "wae": 8669,
      "asai": 8670,
      "chitap": 8671,
      "chindos": 8672,
      "keyat": 8673,
      "keyachi": 8674,
      "kecher": 8675,
      "kemeto": 8676,
      "kealda": 8677,
      "osit": 8678,
      "yep": 8679,
      "mian": 8680,
      "yaetap": 8681,
      "Toror": 8682,
      "yonde": 8683,
      "angan": 8684,
      "kande": 8685,
      "kaamwa": 8686,
      "ombeni": 8687,
      "olii": 8688,
      "oliin": 8689,
      "oker": 8690,
      "eekab": 8691,
      "komwee": 8692,
      "komatinye": 8693,
      "komuuny": 8694,
      "imite": 8695,
      "rata": 8696,
      "ililen": 8697,
      "korip": 8698,
      "urug": 8699,
      "oleki": 8700,
      "koging": 8701,
      "kogimi": 8702,
      "ibeel": 8703,
      "ibatisan": 8704,
      "usiisyek": 8705,
      "weerooto": 8706,
      "kipkei": 8707,
      "obwoti": 8708,
      "karir": 8709,
      "karuch": 8710,
      "keikei": 8711,
      "kibat": 8712,
      "kiboret": 8713,
      "kigon": 8714,
      "lelutyet": 8715,
      "iyagi": 8716,
      "niki": 8717,
      "isio": 8718,
      "unena": 8719,
      "kasulda": 8720,
      "amanda": 8721,
      "kamenyin": 8722,
      "kimin": 8723,
      "kimiit": 8724,
      "kimnon": 8725,
      "Chobei": 8726,
      "kabor": 8727,
      "ipani": 8728,
      "onichooto": 8729,
      "Nge": 8730,
      "konyaal": 8731,
      "Maon": 8732,
      "Mayowe": 8733,
      "kete": 8734,
      "ketog": 8735,
      "murereet": 8736,
      "epe": 8737,
      "epcha": 8738,
      "imaaz": 8739,
      "kityaachi": 8740,
      "kolugui": 8741,
      "wootap": 8742,
      "kagoochinonooto": 8743,
      "kagoochinoiguk": 8744,
      "pitu": 8745,
      "atau": 8746,
      "tulwooni": 8747,
      "alaaldos": 8748,
      "togoochi": 8749,
      "acheegei": 8750,
      "edek": 8751,
      "yeiwo": 8752,
      "lakwee": 8753,
      "ngori": 8754,
      "kelong": 8755,
      "kelumda": 8756,
      "pororyosye": 8757,
      "Artaser": 8758,
      "kesit": 8759,
      "kobarin": 8760,
      "kochot": 8761,
      "kochuut": 8762,
      "kochootyo": 8763,
      "adrak": 8764,
      "kouye": 8765,
      "otiot": 8766,
      "chopchi": 8767,
      "kisal": 8768,
      "gaz": 8769,
      "utichu": 8770,
      "utichoto": 8771,
      "mati": 8772,
      "lagokyuk": 8773,
      "tainnyo": 8774,
      "agaas": 8775,
      "yaityennyi": 8776,
      "riren": 8777,
      "kibogit": 8778,
      "petos": 8779,
      "borta": 8780,
      "Kayan": 8781,
      "kanamwennyi": 8782,
      "koorchooto": 8783,
      "aisai": 8784,
      "Shadrak": 8785,
      "Ngotko": 8786,
      "keechiiryet": 8787,
      "gorik": 8788,
      "weechi": 8789,
      "ingogas": 8790,
      "Ingong": 8791,
      "Ingonyo": 8792,
      "Ingoberuur": 8793,
      "Ingogas": 8794,
      "kotesagis": 8795,
      "Agoonin": 8796,
      "atebosyek": 8797,
      "isheck": 8798,
      "kamanutik": 8799,
      "chomnyet": 8800,
      "tyechei": 8801,
      "koamisyei": 8802,
      "Korom": 8803,
      "imutyi": 8804,
      "imutwech": 8805,
      "kinte": 8806,
      "anegei": 8807,
      "Kiger": 8808,
      "Ahitub": 8809,
      "Ahimaaz": 8810,
      "koteep": 8811,
      "araindet": 8812,
      "kakweng": 8813,
      "rwandennyu": 8814,
      "alde": 8815,
      "Elieser": 8816,
      "oboisyechi": 8817,
      "kebebertanyi": 8818,
      "pwaanjin": 8819,
      "Kisiir": 8820,
      "Kobooto": 8821,
      "saautik": 8822,
      "kamuktaennyi": 8823,
      "kemousyek": 8824,
      "aanye": 8825,
      "tengekwogikyik": 8826,
      "sabatosyekyuk": 8827,
      "kweanet": 8828,
      "kiwotennywa": 8829,
      "koriiree": 8830,
      "koriirei": 8831,
      "tuiyogei": 8832,
      "lenji": 8833,
      "aibun": 8834,
      "Neegit": 8835,
      "katunisi": 8836,
      "rurei": 8837,
      "kosaptos": 8838,
      "kochopchi": 8839,
      "tuiyoni": 8840,
      "asiku": 8841,
      "Ingotebee": 8842,
      "koguuree": 8843,
      "Kotee": 8844,
      "kabwaatetap": 8845,
      "iyastos": 8846,
      "omutu": 8847,
      "pistoennywa": 8848,
      "riirekwak": 8849,
      "chegig": 8850,
      "abare": 8851,
      "inyone": 8852,
      "ematunwek": 8853,
      "Kilya": 8854,
      "oteebe": 8855,
      "Ramot": 8856,
      "orechin": 8857,
      "unoe": 8858,
      "kweryei": 8859,
      "iyweisyei": 8860,
      "koteweer": 8861,
      "elyeptanyu": 8862,
      "hekalunnyi": 8863,
      "Kimitu": 8864,
      "ilgil": 8865,
      "nyigiisen": 8866,
      "panganutik": 8867,
      "sekta": 8868,
      "kiloinik": 8869,
      "Sidonik": 8870,
      "milda": 8871,
      "keriingonooto": 8872,
      "Rabbah": 8873,
      "pichait": 8874,
      "kereeriisyegap": 8875,
      "kalyang": 8876,
      "Uzziel": 8877,
      "chelek": 8878,
      "tuugeet": 8879,
      "iuit": 8880,
      "Kitebe": 8881,
      "punootik": 8882,
      "karurugu": 8883,
      "aweege": 8884,
      "Hannah": 8885,
      "kartas": 8886,
      "talamoi": 8887,
      "Libna": 8888,
      "iyanaat": 8889,
      "Rwanda": 8890,
      "chumbik": 8891,
      "Ziklag": 8892,
      "kewelutik": 8893,
      "kigegas": 8894,
      "kimwaitoe": 8895,
      "kipsoiywet": 8896,
      "kechirek": 8897,
      "koyasyechi": 8898,
      "Eliphas": 8899,
      "Tuguuk": 8900,
      "nyooljin": 8901,
      "piribirinik": 8902,
      "krismas": 8903,
      "kobatena": 8904,
      "korotichooto": 8905,
      "Tamir": 8906,
      "altiel": 8907,
      "Anyoonjok": 8908,
      "Meshak": 8909,
      "Miriam": 8910,
      "mutyonet": 8911,
      "Goshen": 8912,
      "Lazaro": 8913,
      "Artaserses": 8914,
      "Bani": 8915,
      "Bere": 8916,
      "Bela": 8917,
      "Dib": 8918,
      "Egl": 8919,
      "Hel": 8920,
      "Hush": 8921,
      "Iit": 8922,
      "Igatok": 8923,
      "Jop": 8924,
      "Koo": 8925,
      "Kama": 8926,
      "Kanyoru": 8927,
      "Li": 8928,
      "Mot": 8929,
      "Maa": 8930,
      "Muny": 8931,
      "Momi": 8932,
      "Mika": 8933,
      "Mwaiwo": 8934,
      "Netai": 8935,
      "Oleenji": 8936,
      "Sad": 8937,
      "Sila": 8938,
      "Tap": 8939,
      "Til": 8940,
      "Tito": 8941,
      "Tilil": 8942,
      "Yo": 8943,
      "atabaan": 8944,
      "andit": 8945,
      "bak": 8946,
      "bis": 8947,
      "bwoni": 8948,
      "bananda": 8949,
      "gat": 8950,
      "got": 8951,
      "gari": 8952,
      "horon": 8953,
      "iyat": 8954,
      "iguur": 8955,
      "iaror": 8956,
      "iboibo": 8957,
      "keek": 8958,
      "meennyi": 8959,
      "one": 8960,
      "otu": 8961,
      "ochame": 8962,
      "oyum": 8963,
      "pat": 8964,
      "ros": 8965,
      "sono": 8966,
      "ura": 8967,
      "koing": 8968,
      "koale": 8969,
      "koinik": 8970,
      "kokir": 8971,
      "kokil": 8972,
      "konereek": 8973,
      "koaragen": 8974,
      "kosichei": 8975,
      "koweigei": 8976,
      "ngos": 8977,
      "ngwang": 8978,
      "charu": 8979,
      "etyi": 8980,
      "nek": 8981,
      "nekim": 8982,
      "neja": 8983,
      "nesek": 8984,
      "kiche": 8985,
      "kiwek": 8986,
      "kinda": 8987,
      "kiutye": 8988,
      "akweennyi": 8989,
      "chegororon": 8990,
      "oonigap": 8991,
      "iibo": 8992,
      "anu": 8993,
      "agon": 8994,
      "tuu": 8995,
      "aise": 8996,
      "aiywet": 8997,
      "isiis": 8998,
      "iseni": 8999,
      "atig": 9000,
      "atyach": 9001,
      "legei": 9002,
      "inom": 9003,
      "inoik": 9004,
      "inaat": 9005,
      "artet": 9006,
      "enan": 9007,
      "pota": 9008,
      "potan": 9009,
      "Kiam": 9010,
      "Kiwek": 9011,
      "Kimak": 9012,
      "Kinem": 9013,
      "Kitononso": 9014,
      "aberuur": 9015,
      "abunu": 9016,
      "abagaakte": 9017,
      "iteech": 9018,
      "ityagat": 9019,
      "ergei": 9020,
      "oorset": 9021,
      "oname": 9022,
      "kobe": 9023,
      "kobeelei": 9024,
      "muito": 9025,
      "asome": 9026,
      "boisyet": 9027,
      "kego": 9028,
      "keyan": 9029,
      "keyam": 9030,
      "kechig": 9031,
      "yey": 9032,
      "timi": 9033,
      "yande": 9034,
      "emt": 9035,
      "emogis": 9036,
      "angalal": 9037,
      "utiik": 9038,
      "icher": 9039,
      "kaam": 9040,
      "kaagoochi": 9041,
      "torit": 9042,
      "olet": 9043,
      "esha": 9044,
      "irchi": 9045,
      "iratyi": 9046,
      "ireegu": 9047,
      "komb": 9048,
      "komwet": 9049,
      "komuut": 9050,
      "imiten": 9051,
      "imuunyi": 9052,
      "oipo": 9053,
      "kolen": 9054,
      "ilse": 9055,
      "korwai": 9056,
      "korate": 9057,
      "korotiguk": 9058,
      "koruryo": 9059,
      "chinik": 9060,
      "chinikei": 9061,
      "olemi": 9062,
      "oleloo": 9063,
      "kogig": 9064,
      "ibah": 9065,
      "ibuti": 9066,
      "usan": 9067,
      "usiik": 9068,
      "kotech": 9069,
      "kipsi": 9070,
      "igimi": 9071,
      "oban": 9072,
      "obor": 9073,
      "karage": 9074,
      "ulei": 9075,
      "mochog": 9076,
      "kaguur": 9077,
      "kibek": 9078,
      "kigees": 9079,
      "kigeere": 9080,
      "kigaigai": 9081,
      "kigaba": 9082,
      "iywech": 9083,
      "emete": 9084,
      "isip": 9085,
      "chuch": 9086,
      "itondap": 9087,
      "kiyumi": 9088,
      "oges": 9089,
      "ogoono": 9090,
      "kiriip": 9091,
      "kirwookyin": 9092,
      "tekis": 9093,
      "kimage": 9094,
      "Chob": 9095,
      "cheimuchi": 9096,
      "indennyi": 9097,
      "sireet": 9098,
      "siruuti": 9099,
      "Kiptum": 9100,
      "inekey": 9101,
      "isyeng": 9102,
      "isyoti": 9103,
      "ongik": 9104,
      "onginin": 9105,
      "manai": 9106,
      "onitu": 9107,
      "Nget": 9108,
      "Ngalek": 9109,
      "Machei": 9110,
      "Makoy": 9111,
      "nenok": 9112,
      "ketoi": 9113,
      "ketaach": 9114,
      "land": 9115,
      "lakoik": 9116,
      "murwoni": 9117,
      "belel": 9118,
      "besiet": 9119,
      "imande": 9120,
      "kiteekyi": 9121,
      "Kiptaiyatap": 9122,
      "ndanyin": 9123,
      "kobata": 9124,
      "Jerub": 9125,
      "kolong": 9126,
      "kolsetab": 9127,
      "peekyik": 9128,
      "tamanwokik": 9129,
      "amitwogiguk": 9130,
      "Abaibai": 9131,
      "kobou": 9132,
      "kebep": 9133,
      "ootyetap": 9134,
      "iiste": 9135,
      "magennyu": 9136,
      "magato": 9137,
      "kalwal": 9138,
      "achut": 9139,
      "isyechini": 9140,
      "edan": 9141,
      "chokchine": 9142,
      "chokyinet": 9143,
      "ngoriet": 9144,
      "ilech": 9145,
      "toreton": 9146,
      "Ariir": 9147,
      "asigei": 9148,
      "kebebaigap": 9149,
      "kwanisyegap": 9150,
      "toroornateng": 9151,
      "waldos": 9152,
      "kobarei": 9153,
      "kochun": 9154,
      "kochoorchigei": 9155,
      "kochoorugei": 9156,
      "poorwek": 9157,
      "tereen": 9158,
      "lagokyok": 9159,
      "robon": 9160,
      "katei": 9161,
      "kateet": 9162,
      "amwaa": 9163,
      "mesosyek": 9164,
      "kokwenyo": 9165,
      "unyei": 9166,
      "ruei": 9167,
      "rumi": 9168,
      "rotwennyu": 9169,
      "kitau": 9170,
      "kitanyi": 9171,
      "sobenyu": 9172,
      "sobengwai": 9173,
      "kikimut": 9174,
      "kikinde": 9175,
      "kaawek": 9176,
      "kanyi": 9177,
      "She": 9178,
      "tanin": 9179,
      "mungaresiek": 9180,
      "tupchosyechu": 9181,
      "weegegei": 9182,
      "utaatyeng": 9183,
      "atebto": 9184,
      "atebeet": 9185,
      "nyanjanooto": 9186,
      "kogasak": 9187,
      "kogaskei": 9188,
      "itaany": 9189,
      "maotyondonooto": 9190,
      "tyebutik": 9191,
      "kigong": 9192,
      "iyaiywo": 9193,
      "uunetap": 9194,
      "kitindoi": 9195,
      "kisirto": 9196,
      "kisirei": 9197,
      "kegeng": 9198,
      "chobootiin": 9199,
      "irimennyu": 9200,
      "kipsomanik": 9201,
      "kororonen": 9202,
      "Anania": 9203,
      "lemya": 9204,
      "oldanywa": 9205,
      "kanamonikwok": 9206,
      "kakaikaet": 9207,
      "rwaei": 9208,
      "koyaa": 9209,
      "emaisyegap": 9210,
      "tabanwek": 9211,
      "kaneetik": 9212,
      "myeeindong": 9213,
      "kwenunnyoo": 9214,
      "sike": 9215,
      "kotienge": 9216,
      "cherib": 9217,
      "kooriikwok": 9218,
      "seetab": 9219,
      "Karea": 9220,
      "sarwech": 9221,
[...]
